{
  "version": "1.0",
  "truncation": null,
  "padding": null,
  "added_tokens": [
    {
      "id": 0,
      "content": "<|im_start|>",
      "single_word": false,
      "lstrip": false,
      "rstrip": false,
      "normalized": false,
      "special": true
    },
    {
      "id": 1,
      "content": "<|im_end|>",
      "single_word": false,
      "lstrip": false,
      "rstrip": false,
      "normalized": false,
      "special": true
    },
    {
      "id": 2,
      "content": "<unk>",
      "single_word": false,
      "lstrip": false,
      "rstrip": false,
      "normalized": false,
      "special": true
    },
    {
      "id": 3,
      "content": "<s>",
      "single_word": false,
      "lstrip": false,
      "rstrip": false,
      "normalized": false,
      "special": true
    },
    {
      "id": 4,
      "content": "</s>",
      "single_word": false,
      "lstrip": false,
      "rstrip": false,
      "normalized": false,
      "special": true
    }
  ],
  "normalizer": {
    "type": "NFKC"
  },
  "pre_tokenizer": {
    "type": "ByteLevel",
    "add_prefix_space": false,
    "trim_offsets": true,
    "use_regex": true
  },
  "post_processor": null,
  "decoder": {
    "type": "ByteLevel",
    "add_prefix_space": true,
    "trim_offsets": true,
    "use_regex": true
  },
  "model": {
    "type": "BPE",
    "dropout": null,
    "unk_token": "<unk>",
    "continuing_subword_prefix": null,
    "end_of_word_suffix": null,
    "fuse_unk": false,
    "byte_fallback": false,
    "ignore_merges": false,
    "vocab": {
      "<|im_start|>": 0,
      "<|im_end|>": 1,
      "<unk>": 2,
      "<s>": 3,
      "</s>": 4,
      "!": 5,
      "\"": 6,
      "#": 7,
      "$": 8,
      "%": 9,
      "&": 10,
      "'": 11,
      "(": 12,
      ")": 13,
      "*": 14,
      "+": 15,
      ",": 16,
      "-": 17,
      ".": 18,
      "/": 19,
      "0": 20,
      "1": 21,
      "2": 22,
      "3": 23,
      "4": 24,
      "5": 25,
      "6": 26,
      "7": 27,
      "8": 28,
      "9": 29,
      ":": 30,
      ";": 31,
      "<": 32,
      "=": 33,
      ">": 34,
      "?": 35,
      "@": 36,
      "A": 37,
      "B": 38,
      "C": 39,
      "D": 40,
      "E": 41,
      "F": 42,
      "G": 43,
      "H": 44,
      "I": 45,
      "J": 46,
      "K": 47,
      "L": 48,
      "M": 49,
      "N": 50,
      "O": 51,
      "P": 52,
      "Q": 53,
      "R": 54,
      "S": 55,
      "T": 56,
      "U": 57,
      "V": 58,
      "W": 59,
      "X": 60,
      "Y": 61,
      "Z": 62,
      "[": 63,
      "\\": 64,
      "]": 65,
      "^": 66,
      "_": 67,
      "`": 68,
      "a": 69,
      "b": 70,
      "c": 71,
      "d": 72,
      "e": 73,
      "f": 74,
      "g": 75,
      "h": 76,
      "i": 77,
      "j": 78,
      "k": 79,
      "l": 80,
      "m": 81,
      "n": 82,
      "o": 83,
      "p": 84,
      "q": 85,
      "r": 86,
      "s": 87,
      "t": 88,
      "u": 89,
      "v": 90,
      "w": 91,
      "x": 92,
      "y": 93,
      "z": 94,
      "{": 95,
      "|": 96,
      "}": 97,
      "~": 98,
      "¡": 99,
      "¢": 100,
      "£": 101,
      "¤": 102,
      "¥": 103,
      "¦": 104,
      "§": 105,
      "¨": 106,
      "©": 107,
      "ª": 108,
      "«": 109,
      "¬": 110,
      "®": 111,
      "¯": 112,
      "°": 113,
      "±": 114,
      "²": 115,
      "³": 116,
      "´": 117,
      "µ": 118,
      "¶": 119,
      "·": 120,
      "¸": 121,
      "¹": 122,
      "º": 123,
      "»": 124,
      "¼": 125,
      "½": 126,
      "¾": 127,
      "¿": 128,
      "À": 129,
      "Á": 130,
      "Â": 131,
      "Ã": 132,
      "Ä": 133,
      "Å": 134,
      "Æ": 135,
      "Ç": 136,
      "È": 137,
      "É": 138,
      "Ê": 139,
      "Ë": 140,
      "Ì": 141,
      "Í": 142,
      "Î": 143,
      "Ï": 144,
      "Ð": 145,
      "Ñ": 146,
      "Ò": 147,
      "Ó": 148,
      "Ô": 149,
      "Õ": 150,
      "Ö": 151,
      "×": 152,
      "Ø": 153,
      "Ù": 154,
      "Ú": 155,
      "Û": 156,
      "Ü": 157,
      "Ý": 158,
      "Þ": 159,
      "ß": 160,
      "à": 161,
      "á": 162,
      "â": 163,
      "ã": 164,
      "ä": 165,
      "å": 166,
      "æ": 167,
      "ç": 168,
      "è": 169,
      "é": 170,
      "ê": 171,
      "ë": 172,
      "ì": 173,
      "í": 174,
      "î": 175,
      "ï": 176,
      "ð": 177,
      "ñ": 178,
      "ò": 179,
      "ó": 180,
      "ô": 181,
      "õ": 182,
      "ö": 183,
      "÷": 184,
      "ø": 185,
      "ù": 186,
      "ú": 187,
      "û": 188,
      "ü": 189,
      "ý": 190,
      "þ": 191,
      "ÿ": 192,
      "Ā": 193,
      "ā": 194,
      "Ă": 195,
      "ă": 196,
      "Ą": 197,
      "ą": 198,
      "Ć": 199,
      "ć": 200,
      "Ĉ": 201,
      "ĉ": 202,
      "Ċ": 203,
      "ċ": 204,
      "Č": 205,
      "č": 206,
      "Ď": 207,
      "ď": 208,
      "Đ": 209,
      "đ": 210,
      "Ē": 211,
      "ē": 212,
      "Ĕ": 213,
      "ĕ": 214,
      "Ė": 215,
      "ė": 216,
      "Ę": 217,
      "ę": 218,
      "Ě": 219,
      "ě": 220,
      "Ĝ": 221,
      "ĝ": 222,
      "Ğ": 223,
      "ğ": 224,
      "Ġ": 225,
      "ġ": 226,
      "Ģ": 227,
      "ģ": 228,
      "Ĥ": 229,
      "ĥ": 230,
      "Ħ": 231,
      "ħ": 232,
      "Ĩ": 233,
      "ĩ": 234,
      "Ī": 235,
      "ī": 236,
      "Ĭ": 237,
      "ĭ": 238,
      "Į": 239,
      "į": 240,
      "İ": 241,
      "ı": 242,
      "Ĳ": 243,
      "ĳ": 244,
      "Ĵ": 245,
      "ĵ": 246,
      "Ķ": 247,
      "ķ": 248,
      "ĸ": 249,
      "Ĺ": 250,
      "ĺ": 251,
      "Ļ": 252,
      "ļ": 253,
      "Ľ": 254,
      "ľ": 255,
      "Ŀ": 256,
      "ŀ": 257,
      "Ł": 258,
      "ł": 259,
      "Ń": 260,
      "ä¸": 261,
      "ãĢ": 262,
      "çļ": 263,
      "çļĦ": 264,
      "äº": 265,
      "ãĢĤ": 266,
      "æľ": 267,
      "åı": 268,
      "åħ": 269,
      "ä»": 270,
      "å¤": 271,
      "ãĢģ": 272,
      "å®": 273,
      "åĪ": 274,
      "ä½": 275,
      "è¿": 276,
      "çĶ": 277,
      "åľ": 278,
      "åĲ": 279,
      "åĬ": 280,
      "æĺ": 281,
      "ç»": 282,
      "åĽ": 283,
      "æĪ": 284,
      "æĸ": 285,
      "ä¹": 286,
      "ä¼": 287,
      "ä¸Ģ": 288,
      "å¹": 289,
      "å°": 290,
      "æĺ¯": 291,
      "åŃ": 292,
      "è®": 293,
      "æĹ": 294,
      "âĢ": 295,
      "åį": 296,
      "å·": 297,
      "æľī": 298,
      "è¯": 299,
      "åľ¨": 300,
      "éĩ": 301,
      "æĿ": 302,
      "äºº": 303,
      "åĮ": 304,
      "ä¸į": 305,
      "å¸": 306,
      "åº": 307,
      "ä¸Ń": 308,
      "å¼": 309,
      "æī": 310,
      "éĢ": 311,
      "åĴ": 312,
      "è¡": 313,
      "å¾": 314,
      "åĨ": 315,
      "èĢ": 316,
      "å¯": 317,
      "åĴĮ": 318,
      "åĩ": 319,
      "äºĨ": 320,
      "å±": 321,
      "æķ": 322,
      "ĥ½": 323,
      "æĢ": 324,
      "å¤§": 325,
      "çĽ": 326,
      "æĬ": 327,
      "æ°": 328,
      "è´": 329,
      "ä¸º": 330,
      "ç§": 331,
      "æł": 332,
      "åĽ½": 333,
      "è§": 334,
      "çĶŁ": 335,
      "çİ": 336,
      "è¦": 337,
      "ä¸ļ": 338,
      "çī": 339,
      "ä»¥": 340,
      "èµ": 341,
      "å¥": 342,
      "æĶ": 343,
      "å¿": 344,
      "è¦ģ": 345,
      "éĻ": 346,
      "åŃ¦": 347,
      "éĿ": 348,
      "åıĳ": 349,
      "èĩ": 350,
      "å¹´": 351,
      "ä¼ļ": 352,
      "åİ": 353,
      "çĶ¨": 354,
      "æŃ": 355,
      "æ³": 356,
      "çŃ": 357,
      "çĲ": 358,
      "ä¿": 359,
      "å½": 360,
      "èĥ½": 361,
      "éĹ": 362,
      "çº": 363,
      "æ²": 364,
      "å·¥": 365,
      "ä¸Ĭ": 366,
      "ä½ľ": 367,
      "åĳ": 368,
      "æİ": 369,
      "æµ": 370,
      "æŀ": 371,
      "æĹ¶": 372,
      "ä¸ª": 373,
      "âĢľ": 374,
      "âĢĿ": 375,
      "æĪĲ": 376,
      "è¡Į": 377,
      "è¿Ļ": 378,
      "åĵ": 379,
      "åı¯": 380,
      "é¢": 381,
      "æĪĳ": 382,
      "åĪ°": 383,
      "æ¯": 384,
      "å¯¹": 385,
      "æĮ": 386,
      "åĩº": 387,
      "åŁ": 388,
      "æĥ": 389,
      "è¾": 390,
      "éĺ": 391,
      "é«": 392,
      "å®¶": 393,
      "äºİ": 394,
      "çĲĨ": 395,
      "çľ": 396,
      "åī": 397,
      "é«ĺ": 398,
      "èĤ": 399,
      "äº§": 400,
      "æĿ¥": 401,
      "æ±": 402,
      "çŃī": 403,
      "åľ°": 404,
      "å¤ļ": 405,
      "æĦ": 406,
      "åĮĸ": 407,
      "æĭ": 408,
      "æĸ¹": 409,
      "åħ¨": 410,
      "åĪĨ": 411,
      "åĬĽ": 412,
      "è¿Ľ": 413,
      "è½": 414,
      "éģ": 415,
      "èĩª": 416,
      "ä½ĵ": 417,
      "æĸ°": 418,
      "å»": 419,
      "ç®": 420,
      "æĢ§": 421,
      "ä¾": 422,
      "æ´": 423,
      "åĬ¨": 424,
      "ç«": 425,
      "å®ŀ": 426,
      "ç»ı": 427,
      "åħ¬": 428,
      "æ¸": 429,
      "è¿ĩ": 430,
      "ä¹Ł": 431,
      "çİ°": 432,
      "éĥ": 433,
      "ä»¬": 434,
      "ç¨": 435,
      "å¦": 436,
      "å°±": 437,
      "å±ķ": 438,
      "åĲİ": 439,
      "åĲĪ": 440,
      "éķ": 441,
      "ä¸»": 442,
      "çĻ": 443,
      "çĤ": 444,
      "åģ": 445,
      "ä¸ĭ": 446,
      "éĿ¢": 447,
      "æı": 448,
      "éĩį": 449,
      "é£": 450,
      "æ¬": 451,
      "ç½": 452,
      "æĽ": 453,
      "å»º": 454,
      "å®ļ": 455,
      "ä»ĸ": 456,
      "æľº": 457,
      "åĵģ": 458,
      "éĥ¨": 459,
      "åĲĮ": 460,
      "å¥½": 461,
      "é¡": 462,
      "ä¸İ": 463,
      "è®¾": 464,
      "èī": 465,
      "æ³ķ": 466,
      "å¿ĥ": 467,
      "åĬł": 468,
      "å¸Ĥ": 469,
      "ä¹ĭ": 470,
      "åº¦": 471,
      "èģ": 472,
      "ç¤": 473,
      "æ°´": 474,
      "èĢĮ": 475,
      "å¼Ģ": 476,
      "çĹ": 477,
      "éĽ": 478,
      "åŃĲ": 479,
      "å¢": 480,
      "æĻ": 481,
      "åħ¶": 482,
      "åĪ¶": 483,
      "æľ¬": 484,
      "å¾Ĺ": 485,
      "20": 486,
      "åĢ": 487,
      "èĢħ": 488,
      "éĩı": 489,
      "è¶": 490,
      "çĸ": 491,
      "è·": 492,
      "éķ¿": 493,
      "ç¬": 494,
      "çŁ": 495,
      "çī©": 496,
      "æıĲ": 497,
      "è°": 498,
      "å¦Ĥ": 499,
      "åĿ": 500,
      "åĬ¡": 501,
      "åħ³": 502,
      "ä¿Ŀ": 503,
      "æīĢ": 504,
      "äºĭ": 505,
      "ç®¡": 506,
      "åıĬ": 507,
      "ç¾": 508,
      "åīį": 509,
      "æĹ¥": 510,
      "åºĶ": 511,
      "éļ": 512,
      "æ¶": 513,
      "éĢļ": 514,
      "æį": 515,
      "çĿ": 516,
      "åĨħ": 517,
      "éĥ½": 518,
      "ç³": 519,
      "çĶµ": 520,
      "æķĻ": 521,
      "å§": 522,
      "çł": 523,
      "åľº": 524,
      "ç©": 525,
      "æĥħ": 526,
      "ç§į": 527,
      "èĬ": 528,
      "çķ": 529,
      "åĽł": 530,
      "å°ı": 531,
      "ç²": 532,
      "æľĪ": 533,
      "æĸĩ": 534,
      "æŁ": 535,
      "çĦ": 536,
      "å¤ĸ": 537,
      "ç´": 538,
      "ç¨ĭ": 539,
      "åĮº": 540,
      "æ°ĳ": 541,
      "åıĳå±ķ": 542,
      "å¹³": 543,
      "èĲ": 544,
      "æľĢ": 545,
      "æĬĢ": 546,
      "çĥ": 547,
      "éľ": 548,
      "èµĦ": 549,
      "éħ": 550,
      "ç§ĳ": 551,
      "æĽ´": 552,
      "çĽ®": 553,
      "éĹ´": 554,
      "ä½į": 555,
      "çĽ¸": 556,
      "åĳĺ": 557,
      "è´¨": 558,
      "å·¥ä½ľ": 559,
      "å¤©": 560,
      "æĦı": 561,
      "ä¸ŃåĽ½": 562,
      "å°Ĩ": 563,
      "åħ¥": 564,
      "æ¯Ķ": 565,
      "æľ¯": 566,
      "å¸¸": 567,
      "ç¡": 568,
      "æľŁ": 569,
      "ç³»": 570,
      "å®ī": 571,
      "çĤ¹": 572,
      "ä»£": 573,
      "ä½¿": 574,
      "ç¬¬": 575,
      "è¡¨": 576,
      "ç±": 577,
      "æĶ¿": 578,
      "éĶ": 579,
      "Ĥ£": 580,
      "è¯´": 581,
      "å¼º": 582,
      "å¾Ī": 583,
      "ä¸ī": 584,
      "æ·": 585,
      "èĥ": 586,
      "å½ĵ": 587,
      "åı¸": 588,
      "æ´»": 589,
      "è¿ĺ": 590,
      "éģĵ": 591,
      "çī¹": 592,
      "æŀľ": 593,
      "ä¼ģ": 594,
      "æ²»": 595,
      "éĩĳ": 596,
      "èµ·": 597,
      "ä»İ": 598,
      "å¹¶": 599,
      "åı¯ä»¥": 600,
      "èį": 601,
      "æģ": 602,
      "æĺİ": 603,
      "åĪ©": 604,
      "ç¥": 605,
      "æ¬¡": 606,
      "çĦ¶": 607,
      "æŃ¤": 608,
      "èĪ": 609,
      "çĿĢ": 610,
      "ä¿¡": 611,
      "åŁº": 612,
      "ãĢĭ": 613,
      "ãĢĬ": 614,
      "ä½Ĩ": 615,
      "ä¸ĵ": 616,
      "æĪĳä»¬": 617,
      "åĲĦ": 618,
      "éĴ": 619,
      "æĪĸ": 620,
      "åħ¬åı¸": 621,
      "è®¡": 622,
      "é£İ": 623,
      "éĻ¢": 624,
      "ä¼ģä¸ļ": 625,
      "æĮģ": 626,
      "åĲį": 627,
      "æľį": 628,
      "æķ°": 629,
      "éĵ": 630,
      "æĹł": 631,
      "åħļ": 632,
      "ç¾İ": 633,
      "çĹħ": 634,
      "äºĽ": 635,
      "è§Ħ": 636,
      "ä¸Ģä¸ª": 637,
      "å¼ı": 638,
      "çģ": 639,
      "èĭ": 640,
      "ä½ł": 641,
      "è§£": 642,
      "æŃ£": 643,
      "ç»ĵ": 644,
      "èĤ²": 645,
      "é¦": 646,
      "ç¼": 647,
      "è¢": 648,
      "éĢł": 649,
      "å¯¼": 650,
      "è£": 651,
      "éľĢ": 652,
      "èº": 653,
      "åķ": 654,
      "å£": 655,
      "ç¤¾": 656,
      "æº": 657,
      "äºĮ": 658,
      "èī²": 659,
      "åŀ": 660,
      "åĸ": 661,
      "æ¡": 662,
      "ä»»": 663,
      "ç»Ł": 664,
      "çĪ": 665,
      "æ±Ĥ": 666,
      "æ°Ķ": 667,
      "é¢ĺ": 668,
      "åħ·": 669,
      "èĦ": 670,
      "åģļ": 671,
      "åįģ": 672,
      "åĮ»": 673,
      "é¡¹": 674,
      "åĪĽ": 675,
      "çłĶ": 676,
      "00": 677,
      "çľĭ": 678,
      "åħĥ": 679,
      "éĩĮ": 680,
      "ç«ĭ": 681,
      "èº«": 682,
      "æłĩ": 683,
      "ç¦": 684,
      "å¢ŀ": 685,
      "æĦŁ": 686,
      "å¤Ħ": 687,
      "æĥ³": 688,
      "æķĪ": 689,
      "ç½ĳ": 690,
      "æµģ": 691,
      "æį®": 692,
      "æİ¥": 693,
      "è¿Ĳ": 694,
      "çĶ±": 695,
      "ç²¾": 696,
      "éĹ®": 697,
      "æīĭ": 698,
      "ç»Ħ": 699,
      "ä¹Ī": 700,
      "ä»¶": 701,
      "åİ»": 702,
      "æł·": 703,
      "éĹ¨": 704,
      "æł¡": 705,
      "è¢«": 706,
      "èĮ": 707,
      "å·±": 708,
      "è½¦": 709,
      "æĸĻ": 710,
      "åĲĳ": 711,
      "ä¼ł": 712,
      "æ»": 713,
      "çĲĥ": 714,
      "çĻ½": 715,
      "éª": 716,
      "åİŁ": 717,
      "æĬĢæľ¯": 718,
      "æĢ»": 719,
      "é¢Ĩ": 720,
      "åıĹ": 721,
      "è¥": 722,
      "å¤ĩ": 723,
      "æ²¡": 724,
      "å·²": 725,
      "åħ±": 726,
      "è·¯": 727,
      "èĩªå·±": 728,
      "çº§": 729,
      "äº¤": 730,
      "è¥¿": 731,
      "åķĨ": 732,
      "å½¢": 733,
      "çİ¯": 734,
      "æµ·": 735,
      "æł¼": 736,
      "åŀĭ": 737,
      "å½±": 738,
      "ä¸¤": 739,
      "ç®¡çĲĨ": 740,
      "çŁ¥": 741,
      "é©": 742,
      "æ£": 743,
      "éĺ²": 744,
      "æľįåĬ¡": 745,
      "åįķ": 746,
      "çľģ": 747,
      "åħĪ": 748,
      "ç±»": 749,
      "åĽ½å®¶": 750,
      "è¿Ľè¡Į": 751,
      "åıĺ": 752,
      "é»": 753,
      "è°ĥ": 754,
      "æİ¨": 755,
      "å°ĳ": 756,
      "ä¼ĺ": 757,
      "ä¸ĩ": 758,
      "éĽĨ": 759,
      "æĶ¹": 760,
      "åĻ": 761,
      "éĺŁ": 762,
      "èģĶ": 763,
      "èİ": 764,
      "æ·±": 765,
      "èĩ³": 766,
      "æ¢": 767,
      "å¹¿": 768,
      "èĻ": 769,
      "ä¹ł": 770,
      "ä¸ĸ": 771,
      "ç¤º": 772,
      "æĶ¶": 773,
      "éĤ£": 774,
      "è¾ĥ": 775,
      "å¸Ī": 776,
      "äº§åĵģ": 777,
      "æ®": 778,
      "åıª": 779,
      "å»ºè®¾": 780,
      "æĮĩ": 781,
      "æŀĦ": 782,
      "çĸĹ": 783,
      "æĬ¥": 784,
      "ç¤¾ä¼ļ": 785,
      "æīį": 786,
      "åŁİ": 787,
      "é£Ł": 788,
      "æĸ½": 789,
      "æºĲ": 790,
      "æĶ¾": 791,
      "å®Į": 792,
      "åįĹ": 793,
      "ä¹¦": 794,
      "å±±": 795,
      "ä¸ľ": 796,
      "åıĸ": 797,
      "åı£": 798,
      "ä¾Ľ": 799,
      "éĢī": 800,
      "çĥŃ": 801,
      "èµĽ": 802,
      "è®¤": 803,
      "çº¿": 804,
      "åĻ¨": 805,
      "è¾¾": 806,
      "èĬĤ": 807,
      "æ¨": 808,
      "æ³¨": 809,
      "èĲ¥": 810,
      "èĢģ": 811,
      "è®°": 812,
      "è®©": 813,
      "åĽĽ": 814,
      "å¸¦": 815,
      "ä»·": 816,
      "ç¥ŀ": 817,
      "è¿ĳ": 818,
      "æ¼": 819,
      "å®¹": 820,
      "çĬ": 821,
      "èĢĥ": 822,
      "è£ħ": 823,
      "ç¡®": 824,
      "éĿŀ": 825,
      "æĪĺ": 826,
      "åĮĹ": 827,
      "çķĮ": 828,
      "éĹ®é¢ĺ": 829,
      "åĩĨ": 830,
      "æĿ¡": 831,
      "åĪ«": 832,
      "æĬ¤": 833,
      "å§Ķ": 834,
      "åħī": 835,
      "åı°": 836,
      "æķĻèĤ²": 837,
      "èħ": 838,
      "è¯ģ": 839,
      "å²": 840,
      "åĽ¢": 841,
      "çħ": 842,
      "åĨ³": 843,
      "æ¯ı": 844,
      "æµİ": 845,
      "ç´ł": 846,
      "å¢ĥ": 847,
      "çĽ´": 848,
      "åĬŁ": 849,
      "æĢĿ": 850,
      "æķ´": 851,
      "æ²¡æľī": 852,
      "æīĵ": 853,
      "æĺĵ": 854,
      "è±": 855,
      "å¥³": 856,
      "æŃ¥": 857,
      "æĶ¯": 858,
      "ä½İ": 859,
      "äºĶ": 860,
      "ä¹ī": 861,
      "æĬĬ": 862,
      "åĶ": 863,
      "201": 864,
      "ç©º": 865,
      "æ¸ħ": 866,
      "åĽŀ": 867,
      "ç©¶": 868,
      "åħ»": 869,
      "æĿĲ": 870,
      "å±Ģ": 871,
      "èģĮ": 872,
      "çľŁ": 873,
      "åĮħ": 874,
      "è§Ĥ": 875,
      "ä½¿çĶ¨": 876,
      "ç»Ļ": 877,
      "çĶŁäº§": 878,
      "åĭ": 879,
      "è´¹": 880,
      "æ¶Ī": 881,
      "è§Ĩ": 882,
      "æĬķ": 883,
      "å®ĥ": 884,
      "åĬŀ": 885,
      "å¼ķ": 886,
      "æĪ·": 887,
      "éĻħ": 888,
      "éľĢè¦ģ": 889,
      "å¤´": 890,
      "ç»ıæµİ": 891,
      "é¥": 892,
      "æģ¯": 893,
      "Ġ,": 894,
      "èį¯": 895,
      "å¿«": 896,
      "å¸Ĥåľº": 897,
      "å¤į": 898,
      "è¯¥": 899,
      "åĬ©": 900,
      "ç§¯": 901,
      "æł¹": 902,
      "çİĩ": 903,
      "è¨": 904,
      "æŁ¥": 905,
      "ç»´": 906,
      "éĢļè¿ĩ": 907,
      "å°±æĺ¯": 908,
      "åıĤ": 909,
      "è®®": 910,
      "éĢŁ": 911,
      "ä»Ĭ": 912,
      "è¯Ĩ": 913,
      "è´£": 914,
      "èĩ´": 915,
      "è§ģ": 916,
      "åįĩ": 917,
      "å¿ħ": 918,
      "è®º": 919,
      "åĿļ": 920,
      "éĩįè¦ģ": 921,
      "å¹²": 922,
      "åĨį": 923,
      "çĶŁæ´»": 924,
      "æĢģ": 925,
      "åįİ": 926,
      "å¸ĥ": 927,
      "å®¢": 928,
      "æĤ£": 929,
      "çłĶç©¶": 930,
      "å®īåħ¨": 931,
      "èı": 932,
      "çı": 933,
      "æĤ": 934,
      "è½¬": 935,
      "åĨµ": 936,
      "éªĮ": 937,
      "æĸŃ": 938,
      "æŀģ": 939,
      "åĦ": 940,
      "åıį": 941,
      "åİĨ": 942,
      "ä¸ĵä¸ļ": 943,
      "ç»Ń": 944,
      "æĸ¯": 945,
      "ä¸»è¦ģ": 946,
      "è¶Ĭ": 947,
      "æİ§": 948,
      "èĬ±": 949,
      "è¶³": 950,
      "æ¸©": 951,
      "åĳ½": 952,
      "æħ": 953,
      "éĻĲ": 954,
      "å¦Ĥæŀľ": 955,
      "åĵį": 956,
      "éŁ": 957,
      "åģ¥": 958,
      "è¯Ŀ": 959,
      "10": 960,
      "æĹ¶éĹ´": 961,
      "çĪ±": 962,
      "å¾·": 963,
      "å¡": 964,
      "æ¹": 965,
      "èĳ": 966,
      "æ£Ģ": 967,
      "æĿĥ": 968,
      "ä½ķ": 969,
      "ä¸Ķ": 970,
      "æ¸¸": 971,
      "çĭ": 972,
      "éĢĤ": 973,
      "è¯ķ": 974,
      "å·ŀ": 975,
      "èĮĥ": 976,
      "é¡¹çĽ®": 977,
      "æ¨¡": 978,
      "ç¢": 979,
      "åİĭ": 980,
      "ä»ĸä»¬": 981,
      "åĢ¼": 982,
      "çļĦäºº": 983,
      "åĨľ": 984,
      "èİ·": 985,
      "éĩĩ": 986,
      "æİĴ": 987,
      "éļ¾": 988,
      "çª": 989,
      "ä»Ģ": 990,
      "è¶ħ": 991,
      "æ¡Ī": 992,
      "åŁŁ": 993,
      "åĪĻ": 994,
      "æľª": 995,
      "å·¥ç¨ĭ": 996,
      "æĸ¹éĿ¢": 997,
      "é¦ĸ": 998,
      "åĳĬ": 999,
      "åº·": 1000,
      "åĬ¿": 1001,
      "åı²": 1002,
      "çĬ¶": 1003,
      "æĸĩåĮĸ": 1004,
      "å§ĭ": 1005,
      "åĨĽ": 1006,
      "è¡Ģ": 1007,
      "äººæ°ĳ": 1008,
      "åŃĺ": 1009,
      "ç§°": 1010,
      "åħĭ": 1011,
      "ç»ĩ": 1012,
      "ä¸¥": 1013,
      "âĢĿ,": 1014,
      "èŀ": 1015,
      "åĳ¨": 1016,
      "æ²¹": 1017,
      "åıĪ": 1018,
      "ç³»ç»Ł": 1019,
      "æ²»çĸĹ": 1020,
      "æĺ¾": 1021,
      "åĦ¿": 1022,
      "é©¬": 1023,
      "ä¼Ĺ": 1024,
      "è¦ģæ±Ĥ": 1025,
      "ä¸ĸçķĮ": 1026,
      "æµĭ": 1027,
      "éĻ¤": 1028,
      "åħ·æľī": 1029,
      "åĪĴ": 1030,
      "éħį": 1031,
      "çļ®": 1032,
      "ä¾¿": 1033,
      "æıĲä¾Ľ": 1034,
      "åŃĹ": 1035,
      "å¥¹": 1036,
      "å½±åĵį": 1037,
      "åı¯èĥ½": 1038,
      "æ±Ł": 1039,
      "çİ¯å¢ĥ": 1040,
      "19": 1041,
      "åŃ¦çĶŁ": 1042,
      "è¿Ļä¸ª": 1043,
      "æĥħåĨµ": 1044,
      "æĪ¿": 1045,
      "ä»Ģä¹Ī": 1046,
      "åŁ¹": 1047,
      "è¡Įä¸ļ": 1048,
      "ä¹Ĳ": 1049,
      "åĢĻ": 1050,
      "åĪĩ": 1051,
      "è´¨éĩı": 1052,
      "åįı": 1053,
      "çĽĳ": 1054,
      "éĿĴ": 1055,
      "âĢĶ": 1056,
      "ç»Ĩ": 1057,
      "èīº": 1058,
      "èĲ½": 1059,
      "åŃ¦ä¹ł": 1060,
      "å¥½çļĦ": 1061,
      "åĲĮæĹ¶": 1062,
      "çħ§": 1063,
      "ç«Ļ": 1064,
      "ç±³": 1065,
      "çĮ": 1066,
      "è®¾è®¡": 1067,
      "åľŁ": 1068,
      "åĽłä¸º": 1069,
      "çīĩ": 1070,
      "è®¾å¤ĩ": 1071,
      "å¼ł": 1072,
      "çģ«": 1073,
      "æľĽ": 1074,
      "çº¦": 1075,
      "çİĭ": 1076,
      "é¾": 1077,
      "äº§ä¸ļ": 1078,
      "å±Ĥ": 1079,
      "äº¬": 1080,
      "èĥ½åĬĽ": 1081,
      "ãĢĤâĢĿ": 1082,
      "çŁ³": 1083,
      "å±ŀ": 1084,
      "å£«": 1085,
      "æĴ": 1086,
      "æļ": 1087,
      "æ´»åĬ¨": 1088,
      "æīĢä»¥": 1089,
      "é¢Ħ": 1090,
      "å¤±": 1091,
      "å¤ª": 1092,
      "å°Ķ": 1093,
      "æ¥": 1094,
      "æĳ": 1095,
      "è±¡": 1096,
      "æī¿": 1097,
      "åĩł": 1098,
      "åį³": 1099,
      "éĻį": 1100,
      "éĶĢ": 1101,
      "åĪĽæĸ°": 1102,
      "åºľ": 1103,
      "æĺ¯ä¸Ģ": 1104,
      "åĸĦ": 1105,
      "çº¢": 1106,
      "èµ°": 1107,
      "ä»¥åıĬ": 1108,
      "æ®µ": 1109,
      "çĽĬ": 1110,
      "ç»Ħç»ĩ": 1111,
      "éļı": 1112,
      "ä¾Ŀ": 1113,
      "æĿ¿": 1114,
      "æıĲé«ĺ": 1115,
      "ç¦»": 1116,
      "æ»¡": 1117,
      "åħħ": 1118,
      "ç½®": 1119,
      "æĤ£èĢħ": 1120,
      "æ¼Ķ": 1121,
      "çĻ¾": 1122,
      "æĿĳ": 1123,
      "æł¸": 1124,
      "åħį": 1125,
      "èŀį": 1126,
      "ä¿¡æģ¯": 1127,
      "ä»ħ": 1128,
      "åĥ": 1129,
      "èī¯": 1130,
      "åĪĹ": 1131,
      "æĵ": 1132,
      "å®¤": 1133,
      "çļĦä¸Ģ": 1134,
      "å¨": 1135,
      "ä½ľä¸º": 1136,
      "çīĮ": 1137,
      "åł": 1138,
      "å¯Į": 1139,
      "æŀĹ": 1140,
      "ä¸įåĲĮ": 1141,
      "éĿ©": 1142,
      "å¤§çļĦ": 1143,
      "åĩı": 1144,
      "æĻº": 1145,
      "éĤ": 1146,
      "å¤Ł": 1147,
      "ç²¾ç¥ŀ": 1148,
      "è´Ł": 1149,
      "å¾Ģ": 1150,
      "éĻ©": 1151,
      "æĻ¯": 1152,
      "è¯Ħ": 1153,
      "æ¿": 1154,
      "äººåĳĺ": 1155,
      "äºī": 1156,
      "ä¾ĭ": 1157,
      "ä¸Ńå¿ĥ": 1158,
      "äº¿": 1159,
      "çŃĸ": 1160,
      "è¿Ļæł·": 1161,
      "äººçļĦ": 1162,
      "ä½ľçĶ¨": 1163,
      "æĪĲä¸º": 1164,
      "ä¸ŃçļĦ": 1165,
      "è¨Ģ": 1166,
      "åŃ¦æł¡": 1167,
      "åŃ©": 1168,
      "äºļ": 1169,
      "åĽ´": 1170,
      "éĺ³": 1171,
      "å¾Īå¤ļ": 1172,
      "ä¿®": 1173,
      "åİ¿": 1174,
      "å¾ĭ": 1175,
      "å¿µ": 1176,
      "ç¾¤": 1177,
      "åı·": 1178,
      "æĶ¿åºľ": 1179,
      "è®¸": 1180,
      "åĩºçİ°": 1181,
      "æĮī": 1182,
      "æĲ": 1183,
      "åĽ½éĻħ": 1184,
      "å¿Ĺ": 1185,
      "ä½ı": 1186,
      "æĭ©": 1187,
      "ä¹Łæĺ¯": 1188,
      "åĽ¾": 1189,
      "åĲ«": 1190,
      "åıĭ": 1191,
      "å¤§åŃ¦": 1192,
      "è¿ŀ": 1193,
      "éĿŀå¸¸": 1194,
      "å®ŀçİ°": 1195,
      "åĽŃ": 1196,
      "åĲĥ": 1197,
      "ç®Ĺ": 1198,
      "ç»Ī": 1199,
      "æĹ©": 1200,
      "å®³": 1201,
      "çĹĩ": 1202,
      "æĿĲæĸĻ": 1203,
      "ä»½": 1204,
      "ç¬¬ä¸Ģ": 1205,
      "âĢĿãĢĤ": 1206,
      "æ²³": 1207,
      "è¿ĻäºĽ": 1208,
      "ä¸Ģå®ļ": 1209,
      "æĭī": 1210,
      "ä¸ĢäºĽ": 1211,
      "éĢīæĭ©": 1212,
      "å·²ç»ı": 1213,
      "çĽ¸åħ³": 1214,
      "åıĮ": 1215,
      "ç§ĳåŃ¦": 1216,
      "å¯Ĩ": 1217,
      "èª": 1218,
      "è¯Ń": 1219,
      "å¯¹äºİ": 1220,
      "è¿ľ": 1221,
      "åĿĩ": 1222,
      "åģ¥åº·": 1223,
      "èĩªå·±çļĦ": 1224,
      "åħ¨åĽ½": 1225,
      "èĤ¡": 1226,
      "èĪ¬": 1227,
      "ç§ĳæĬĢ": 1228,
      "äºĴ": 1229,
      "è§Ĵ": 1230,
      "æŁĵ": 1231,
      "éħĴ": 1232,
      "è§ī": 1233,
      "æ¿Ģ": 1234,
      "æĻ®": 1235,
      "è¿ĩç¨ĭ": 1236,
      "åĲĪä½ľ": 1237,
      "åħ¶ä»ĸ": 1238,
      "é»Ħ": 1239,
      "åĤ": 1240,
      "ä¸įæĸŃ": 1241,
      "åħ´": 1242,
      "æł¹æį®": 1243,
      "æĹ¶åĢĻ": 1244,
      "é¡»": 1245,
      "åĽłæŃ¤": 1246,
      "è´¢": 1247,
      "åĶ®": 1248,
      "è®²": 1249,
      "éĴ¢": 1250,
      "å¤ĦçĲĨ": 1251,
      "æĹı": 1252,
      "ĠãĢĤ": 1253,
      "ä½Ĩæĺ¯": 1254,
      "çĽ®åīį": 1255,
      "çŃĳ": 1256,
      "å¾®": 1257,
      "ä¸įæĺ¯": 1258,
      "è¯·": 1259,
      "å©": 1260,
      "åŁİå¸Ĥ": 1261,
      "ä»¥ä¸Ĭ": 1262,
      "çĨ": 1263,
      "åı¤": 1264,
      "ä¸įèĥ½": 1265,
      "æĬķèµĦ": 1266,
      "åĲ¸": 1267,
      "æłĩåĩĨ": 1268,
      "åıĳçĶŁ": 1269,
      "æķħ": 1270,
      "åĪ°äºĨ": 1271,
      "èĭ±": 1272,
      "åįķä½į": 1273,
      "è½»": 1274,
      "èŃ": 1275,
      "éĥ¨éĹ¨": 1276,
      "12": 1277,
      "åĥı": 1278,
      "åŁºç¡": 1279,
      "ç¦ı": 1280,
      "çľ¼": 1281,
      "éħ¸": 1282,
      "ç¨³": 1283,
      "åŁºç¡Ģ": 1284,
      "ä¸¾": 1285,
      "æĸ¹å¼ı": 1286,
      "èĨ": 1287,
      "æī¹": 1288,
      "éŁ³": 1289,
      "åŃ©åŃĲ": 1290,
      "åĪĿ": 1291,
      "çĸ«": 1292,
      "å±ħ": 1293,
      "æĿİ": 1294,
      "è¯¾": 1295,
      "éĥ¨åĪĨ": 1296,
      "è®Ń": 1297,
      "æŃ¢": 1298,
      "æ¤": 1299,
      "å¤§å®¶": 1300,
      "åºĶçĶ¨": 1301,
      "çĵ": 1302,
      "è¾¹": 1303,
      "éĵ¶": 1304,
      "é¦Ļ": 1305,
      "åŃ£": 1306,
      "éĵģ": 1307,
      "ä¸»ä¹ī": 1308,
      "è¡¨ç¤º": 1309,
      "åĮ»éĻ¢": 1310,
      "æĬĹ": 1311,
      "åī¯": 1312,
      "ä¼¤": 1313,
      "åħ¶ä¸Ń": 1314,
      "200": 1315,
      "æ¬¾": 1316,
      "çĩ": 1317,
      "åĳ³": 1318,
      "çºª": 1319,
      "æľ¨": 1320,
      "åİĤ": 1321,
      "çĶ·": 1322,
      "èĥ½å¤Ł": 1323,
      "æĭ¬": 1324,
      "ä¸ĢèĪ¬": 1325,
      "å°½": 1326,
      "æķ°æį®": 1327,
      "åİĨåı²": 1328,
      "èģļ": 1329,
      "éļľ": 1330,
      "çªģ": 1331,
      "éĥ½æĺ¯": 1332,
      "å£°": 1333,
      "åºķ": 1334,
      "çļĦæĺ¯": 1335,
      "å»ºçŃĳ": 1336,
      "åį«": 1337,
      "å®¡": 1338,
      "ç®Ģ": 1339,
      "è¾ĵ": 1340,
      "å¥ĸ": 1341,
      "å·¥ä¸ļ": 1342,
      "çķ¥": 1343,
      "æĭħ": 1344,
      "åħ«": 1345,
      "11": 1346,
      "æĸ¹æ³ķ": 1347,
      "åīĤ": 1348,
      "çł´": 1349,
      "å¼Ģå§ĭ": 1350,
      "æľīéĻĲ": 1351,
      "åħ¨éĿ¢": 1352,
      "åįĬ": 1353,
      "ç£": 1354,
      "ä»ĭ": 1355,
      "çĻ½çĻ": 1356,
      "çıŃ": 1357,
      "è¿Ļç§į": 1358,
      "ľé£İ": 1359,
      "å®Ŀ": 1360,
      "æ½": 1361,
      "å®ĺ": 1362,
      "é²": 1363,
      ":âĢľ": 1364,
      "çĻ½çĻľé£İ": 1365,
      "å¼Ģå±ķ": 1366,
      "æ¶²": 1367,
      "ä¿ĥ": 1368,
      "åĮħæĭ¬": 1369,
      "åĬŁèĥ½": 1370,
      "ĠãĢģ": 1371,
      "äº²": 1372,
      "æĺŁ": 1373,
      "æ±½": 1374,
      "èµĦæºĲ": 1375,
      "è¡¥": 1376,
      "é¾Ļ": 1377,
      "å¸Į": 1378,
      "åĿļæĮģ": 1379,
      "éĽĨåĽ¢": 1380,
      "å®£": 1381,
      "éĨ": 1382,
      "æĪĸèĢħ": 1383,
      "å¿ħé¡»": 1384,
      "åĸľ": 1385,
      "æ±¡": 1386,
      "è§Ħå®ļ": 1387,
      "èİ·å¾Ĺ": 1388,
      "æĹħ": 1389,
      "æ¯Ĵ": 1390,
      "åį°": 1391,
      "æĪĳåĽ½": 1392,
      "ç§¯æŀģ": 1393,
      "ç¼º": 1394,
      "æĺ¥": 1395,
      "çĶ±äºİ": 1396,
      "åľ°åĮº": 1397,
      "æ°´å¹³": 1398,
      "èĴ": 1399,
      "æĽ¾": 1400,
      "ç½Ĺ": 1401,
      "ç¿": 1402,
      "åį´": 1403,
      "åįļ": 1404,
      "ä¿ĿæĬ¤": 1405,
      "ä»£è¡¨": 1406,
      "åĨ·": 1407,
      "èĹ": 1408,
      "ä¸´": 1409,
      "åħŃ": 1410,
      "ç»ĵæŀĦ": 1411,
      "çİ°åľ¨": 1412,
      "é¢ĨåŁŁ": 1413,
      "é¢Ĩå¯¼": 1414,
      "æľºæŀĦ": 1415,
      "çķĻ": 1416,
      "æī§": 1417,
      "åī§": 1418,
      "ç¾İåĽ½": 1419,
      "æıĲåįĩ": 1420,
      "å¢ŀéķ¿": 1421,
      "çĶ»": 1422,
      "åĮĹäº¬": 1423,
      "æ¯Ķè¾ĥ": 1424,
      "åĬłå¼º": 1425,
      "ç»§": 1426,
      "çĭ¬": 1427,
      "æ³¨æĦı": 1428,
      "ç¯": 1429,
      "30": 1430,
      "æŀĲ": 1431,
      "å·®": 1432,
      "ä½Ļ": 1433,
      "ä¸ĢæŃ¥": 1434,
      "éĢģ": 1435,
      "202": 1436,
      "çĸ¾": 1437,
      "åı¦": 1438,
      "å¸®": 1439,
      "åįł": 1440,
      "åĬ³": 1441,
      "æĹ¶ä»£": 1442,
      "ç´§": 1443,
      "å·´": 1444,
      "è´Ń": 1445,
      "ç¨İ": 1446,
      "éº": 1447,
      "äºĳ": 1448,
      "åĽº": 1449,
      "äºĨè§£": 1450,
      "å¾ģ": 1451,
      "15": 1452,
      "æİ§åĪ¶": 1453,
      "å¢ŀåĬł": 1454,
      "å¤®": 1455,
      "èĳĹ": 1456,
      "ç»¼": 1457,
      "ä¸ªäºº": 1458,
      "è´£ä»»": 1459,
      "ä¸°": 1460,
      "ä¹¡": 1461,
      "æįŁ": 1462,
      "ç»ľ": 1463,
      "å¹³åı°": 1464,
      "å®¢æĪ·": 1465,
      "å½¢æĪĲ": 1466,
      "åŁºæľ¬": 1467,
      "çĤİ": 1468,
      "ç¬¬äºĮ": 1469,
      "åįĥ": 1470,
      "é»ĳ": 1471,
      "æŃ¦": 1472,
      "æ¦": 1473,
      "å¾ħ": 1474,
      "è¿ĺæĺ¯": 1475,
      "æĢĿæĥ³": 1476,
      "ç»¿": 1477,
      "åŃ¦éĻ¢": 1478,
      "å®ĮæĪĲ": 1479,
      "åĪ»": 1480,
      "çİ°ä»£": 1481,
      "åħ³ç³»": 1482,
      "å¼Ĥ": 1483,
      "æ¹ĸ": 1484,
      "åĵģçīĮ": 1485,
      "æŁĲ": 1486,
      "å¹´çļĦ": 1487,
      "æĶ¹éĿ©": 1488,
      "æķĻåŃ¦": 1489,
      "çĤº": 1490,
      "æ¬¢": 1491,
      "ä¸įä¼ļ": 1492,
      "åĨħå®¹": 1493,
      "é¥®": 1494,
      "æ¸¯": 1495,
      "èĢĮä¸Ķ": 1496,
      "å¯¼èĩ´": 1497,
      "çº³": 1498,
      "çŁŃ": 1499,
      "é¼": 1500,
      "è§£åĨ³": 1501,
      "å¯Ł": 1502,
      "éľĢæ±Ĥ": 1503,
      "é¸": 1504,
      "æľīéĻĲåħ¬åı¸": 1505,
      "æĶ¿çŃĸ": 1506,
      "æľīæķĪ": 1507,
      "äººæīį": 1508,
      "åºĹ": 1509,
      "ç«ŀ": 1510,
      "åĽ½åĨħ": 1511,
      "éķĩ": 1512,
      "éĤ£ä¹Ī": 1513,
      "åĪ¶éĢł": 1514,
      "åıĳçİ°": 1515,
      "æłĳ": 1516,
      "æĶ¿æ²»": 1517,
      "åĩ»": 1518,
      "æ¯į": 1519,
      "è®¤ä¸º": 1520,
      "é¢Ŀ": 1521,
      "åĪĨæŀĲ": 1522,
      "èĮ¶": 1523,
      "èĢĲ": 1524,
      "æī¾": 1525,
      "åı¥": 1526,
      "æİ¨è¿Ľ": 1527,
      "è´§": 1528,
      "ä½ĵç³»": 1529,
      "æĸ°çļĦ": 1530,
      "èĥľ": 1531,
      "åĲĦç§į": 1532,
      "ä¸ĬçļĦ": 1533,
      "æŃ»": 1534,
      "éģ¿": 1535,
      "çĶ³": 1536,
      "åĲ¦": 1537,
      "äº§çĶŁ": 1538,
      "åį¡": 1539,
      "ç»ıèĲ¥": 1540,
      "åĨł": 1541,
      "èĻ½": 1542,
      "å¸ĮæľĽ": 1543,
      "åĪ©çĶ¨": 1544,
      "å°Ħ": 1545,
      "æĮ¥": 1546,
      "æĽ´åĬł": 1547,
      "æ¢¦": 1548,
      "æ³¢": 1549,
      "ä¸ºäºĨ": 1550,
      "éĩįçĤ¹": 1551,
      "åĨĻ": 1552,
      "è¿Ļä¸Ģ": 1553,
      "ç»¼åĲĪ": 1554,
      "èĩªçĦ¶": 1555,
      "æľīåħ³": 1556,
      "çĹĽ": 1557,
      "),": 1558,
      "ä¼ļè®®": 1559,
      "åĪ¶åº¦": 1560,
      "å²ģ": 1561,
      "æĿ¥çļĦ": 1562,
      "ç½ĳç»ľ": 1563,
      ",âĢľ": 1564,
      "ç¼ĸ": 1565,
      "çĽ®æłĩ": 1566,
      "ç§»": 1567,
      "åŃĺåľ¨": 1568,
      "å®ŀæĸ½": 1569,
      "å¼Ģåıĳ": 1570,
      "åħļçļĦ": 1571,
      "ç«¯": 1572,
      "éĢłæĪĲ": 1573,
      "èĪª": 1574,
      "æľĥ": 1575,
      "çĶ¨äºİ": 1576,
      "æİ¨åĬ¨": 1577,
      "ç»Ŀ": 1578,
      "éģĩ": 1579,
      "åħ°": 1580,
      "åį±": 1581,
      "ä»¤": 1582,
      "éĩĩçĶ¨": 1583,
      "æį¢": 1584,
      "å®¹æĺĵ": 1585,
      "æ±ī": 1586,
      "éĴŁ": 1587,
      "æĶ¯æĮģ": 1588,
      "æĭ¥": 1589,
      "éĺ¿": 1590,
      "ä¼łç»Ł": 1591,
      "çīĽ": 1592,
      "å½ķ": 1593,
      "ä¸Ńå¤®": 1594,
      "ä¹¦è®°": 1595,
      "æ°§": 1596,
      "æĸĹ": 1597,
      "çī¹èī²": 1598,
      "æ¶Īè´¹": 1599,
      "ä¹ĭåĲİ": 1600,
      "çŁ¥éģĵ": 1601,
      "åĲ¬": 1602,
      "åº§": 1603,
      "æīĢæľī": 1604,
      "èĭı": 1605,
      "ç§Ģ": 1606,
      "æĦ¿": 1607,
      "çļĦæĹ¶åĢĻ": 1608,
      "äºĨä¸Ģ": 1609,
      "çĸ¾çĹħ": 1610,
      "çŁ¥è¯Ĩ": 1611,
      "èıľ": 1612,
      "æĴŃ": 1613,
      "ä¸įä»ħ": 1614,
      "ç«ł": 1615,
      "æķĪæŀľ": 1616,
      "è¯»": 1617,
      "å¦Ĥä½ķ": 1618,
      "æ±½è½¦": 1619,
      "æĭĽ": 1620,
      "ä¹Ŀ": 1621,
      "æĤ¨": 1622,
      "çī¹åĪ«": 1623,
      "æ¬§": 1624,
      "æĿ¡ä»¶": 1625,
      "åĵª": 1626,
      "æ¤į": 1627,
      "ä¸ļåĬ¡": 1628,
      "åºŃ": 1629,
      "å®Ī": 1630,
      "ä¿ĿæĮģ": 1631,
      "æ´Ĺ": 1632,
      "åºĶè¯¥": 1633,
      "èĽ": 1634,
      "è¾¾åĪ°": 1635,
      "éĸ": 1636,
      "çĮ®": 1637,
      "æĩ": 1638,
      "å»ºç«ĭ": 1639,
      "åľ°æĸ¹": 1640,
      "çīĪ": 1641,
      "åĬª": 1642,
      "Â·": 1643,
      "ç»ĵåĲĪ": 1644,
      "æĢ¥": 1645,
      "éĢĲ": 1646,
      "å±Ĭ": 1647,
      "è¿Ľä¸ĢæŃ¥": 1648,
      "å®ŀéĻħ": 1649,
      "èŃ¦": 1650,
      "èĤī": 1651,
      "æĪı": 1652,
      "åĽ°": 1653,
      "çĶļ": 1654,
      "èįī": 1655,
      "äº¿åħĥ": 1656,
      "è´Łè´£": 1657,
      "èģĮä¸ļ": 1658,
      "æĢİ": 1659,
      "å¤«": 1660,
      "ç²ī": 1661,
      "ä»·æł¼": 1662,
      "é¢ĳ": 1663,
      "åºı": 1664,
      "æĵį": 1665,
      "å³": 1666,
      "100": 1667,
      "èº«ä½ĵ": 1668,
      "è¿°": 1669,
      "âĢĶâĢĶ": 1670,
      "ä»į": 1671,
      "åºĬ": 1672,
      "æĿ¥è¯´": 1673,
      "å·¦": 1674,
      "çĿ£": 1675,
      "åĩĢ": 1676,
      "å½©": 1677,
      "è¿ĺæľī": 1678,
      "åĬªåĬĽ": 1679,
      "è¿Ļæĺ¯": 1680,
      "åĳ¢": 1681,
      "è·µ": 1682,
      "%,": 1683,
      "æıĲåĩº": 1684,
      "æĮģç»Ń": 1685,
      "èīºæľ¯": 1686,
      "åıĸå¾Ĺ": 1687,
      "50": 1688,
      "ä¹ħ": 1689,
      "è²": 1690,
      "ä¸Ģèµ·": 1691,
      "ä¸įè¦ģ": 1692,
      "æİĪ": 1693,
      "è½®": 1694,
      "åı³": 1695,
      "ä»·åĢ¼": 1696,
      "ä»ª": 1697,
      "ä¹°": 1698,
      "æĻĤ": 1699,
      "åŁ¹åħ»": 1700,
      "ç»į": 1701,
      "åħ¨çĲĥ": 1702,
      "éĻĪ": 1703,
      "é£ŀ": 1704,
      "åİŁåĽł": 1705,
      "çĶ²": 1706,
      "åª": 1707,
      "çµ": 1708,
      "æİª": 1709,
      "ä¹ĭä¸Ģ": 1710,
      "è¿½": 1711,
      "ä¼ĺåĬ¿": 1712,
      "ãĢĮ": 1713,
      "æ´²": 1714,
      "è½¯": 1715,
      "ä¸ĥ": 1716,
      "ä¿ĥè¿Ľ": 1717,
      "éĿł": 1718,
      "éĺ¶": 1719,
      "æ¯ĶèµĽ": 1720,
      "é½": 1721,
      "æĶ»": 1722,
      "é¤": 1723,
      "éĶĢåĶ®": 1724,
      "æĻºèĥ½": 1725,
      "ãĢį": 1726,
      "éĴĪ": 1727,
      "åģľ": 1728,
      "æĪĺçķ¥": 1729,
      "ç¨³å®ļ": 1730,
      "æ¢°": 1731,
      "å¡ĳ": 1732,
      "èĻ½çĦ¶": 1733,
      "ä¸Ĭæµ·": 1734,
      "çĽ´æİ¥": 1735,
      "ç»©": 1736,
      "ä¿Ŀéļľ": 1737,
      "é¡º": 1738,
      "å¸®åĬ©": 1739,
      "èĤ¤": 1740,
      "äººä»¬": 1741,
      "18": 1742,
      "è®¡åĪĴ": 1743,
      "äºĭä¸ļ": 1744,
      "æĪĲåĬŁ": 1745,
      "æĽ´å¤ļ": 1746,
      "è¿ĲåĬ¨": 1747,
      "è´µ": 1748,
      "é£Łåĵģ": 1749,
      "ç´¢": 1750,
      "èĸ": 1751,
      "å¥ĭ": 1752,
      "æ£ĢæŁ¥": 1753,
      "å¸Ń": 1754,
      "åıªæľī": 1755,
      "å®ģ": 1756,
      "æ©": 1757,
      "éĴ±": 1758,
      "äºĪ": 1759,
      "æĭ¥æľī": 1760,
      "è·Ł": 1761,
      "å°¼": 1762,
      "çĻ»": 1763,
      "è¿Ľåħ¥": 1764,
      "éĶ®": 1765,
      "åħ¸": 1766,
      "è¯Ĭ": 1767,
      "æķ£": 1768,
      "å¥ĩ": 1769,
      "åĨ²": 1770,
      "åıĤåĬł": 1771,
      "å¥Ĺ": 1772,
      "éļıçĿĢ": 1773,
      "åħ±åĲĮ": 1774,
      "çĪ¶": 1775,
      "èĦĳ": 1776,
      "ç»ĥ": 1777,
      "åĪĺ": 1778,
      "è¡Įä¸º": 1779,
      "æħ¢": 1780,
      "èıĮ": 1781,
      "éĢı": 1782,
      "æķĻå¸Ī": 1783,
      "èĦ±": 1784,
      "çĶŁæĢģ": 1785,
      "é¦Ĩ": 1786,
      "è¯ī": 1787,
      "è½½": 1788,
      "ä¼¼": 1789,
      "å§Ķåĳĺ": 1790,
      "è§ĦåĪĴ": 1791,
      "éĢĻ": 1792,
      "èĵ": 1793,
      "ä¹ĭéĹ´": 1794,
      "éĢĢ": 1795,
      "ç¶": 1796,
      "æĻļ": 1797,
      "æ°ĳæĹı": 1798,
      "èį£": 1799,
      "è¿ĩç¨ĭä¸Ń": 1800,
      "çĶļèĩ³": 1801,
      "æ³Ľ": 1802,
      "åıĬæĹ¶": 1803,
      "æī©": 1804,
      "çĶ¨æĪ·": 1805,
      "åħħåĪĨ": 1806,
      "èĲ½å®ŀ": 1807,
      "èĭ¦": 1808,
      "ä»ĺ": 1809,
      "ä»ĭç»į": 1810,
      "éĩĳèŀį": 1811,
      "äº¤éĢļ": 1812,
      "æ³ķå¾ĭ": 1813,
      "éŃ": 1814,
      "æĮīçħ§": 1815,
      "ä¸¥éĩį": 1816,
      "åģĩ": 1817,
      "èĨľ": 1818,
      "åıĳå±ķçļĦ": 1819,
      "æİ¢": 1820,
      "æĿ¾": 1821,
      "çĶµåŃĲ": 1822,
      "çļĦåıĳå±ķ": 1823,
      "åĮ»çĸĹ": 1824,
      "éĶĻ": 1825,
      "æīĺ": 1826,
      "ç½ª": 1827,
      "æĢ§èĥ½": 1828,
      "æ¯ķ": 1829,
      "åı¶": 1830,
      "ç¥¨": 1831,
      "åĬłå·¥": 1832,
      "å¥¥": 1833,
      "ç¬¬ä¸ī": 1834,
      "åŁ¹è®Ń": 1835,
      "åĺ": 1836,
      "å¨ģ": 1837,
      "æĹħæ¸¸": 1838,
      "æĢ§çļĦ": 1839,
      "åŃķ": 1840,
      "å®«": 1841,
      "è´¯": 1842,
      "å¾ĹåĪ°": 1843,
      "æł¸å¿ĥ": 1844,
      "ç»§ç»Ń": 1845,
      "ä»Ĭå¹´": 1846,
      "å»¶": 1847,
      "è³": 1848,
      "åħ³äºİ": 1849,
      "16": 1850,
      "æ°¸": 1851,
      "ä»»ä½ķ": 1852,
      "æĬĵ": 1853,
      "ä¼Ł": 1854,
      "æľĿ": 1855,
      "æīįèĥ½": 1856,
      "ä¸ĢçĽ´": 1857,
      "å½»": 1858,
      "åĩıå°ĳ": 1859,
      "å©ļ": 1860,
      "æĬ¥åĳĬ": 1861,
      "çĽĸ": 1862,
      "ä¸¤ä¸ª": 1863,
      "åıĳæĮ¥": 1864,
      "èĥ½æºĲ": 1865,
      "èĥĮ": 1866,
      "è¶ħè¿ĩ": 1867,
      "äº«": 1868,
      "åĢĭ": 1869,
      "åºĨ": 1870,
      "å®ĮåĸĦ": 1871,
      "çģµ": 1872,
      "ä¹İ": 1873,
      "æĿĤ": 1874,
      "çĴ": 1875,
      "ä¸°å¯Į": 1876,
      "åİļ": 1877,
      "æķĳ": 1878,
      "éĽ¨": 1879,
      "ä½³": 1880,
      "è°Ī": 1881,
      "åĪĨéĴŁ": 1882,
      "ä»ĸçļĦ": 1883,
      "é²ľ": 1884,
      "ç¤¾ä¼ļä¸»ä¹ī": 1885,
      "éģ¿åħį": 1886,
      "èĥ¶": 1887,
      "è¯ļ": 1888,
      "æĸ¹æ¡Ī": 1889,
      "çĨŁ": 1890,
      "å®ŀè·µ": 1891,
      "åĪ¤": 1892,
      "æ²Ļ": 1893,
      "æľĭ": 1894,
      "ä½Ľ": 1895,
      "ç¦ģ": 1896,
      "ä¸ĵå®¶": 1897,
      "æ¾": 1898,
      "çĺ": 1899,
      "èĮĥåĽ´": 1900,
      "è¿İ": 1901,
      "å¼ķèµ·": 1902,
      "è§Ħæ¨¡": 1903,
      "%ãĢĤ": 1904,
      "èħĲ": 1905,
      "èĭ¥": 1906,
      "éĻĦ": 1907,
      "14": 1908,
      "ç»ıè¿ĩ": 1909,
      "æĢĢ": 1910,
      "æľªæĿ¥": 1911,
      "æĸ½å·¥": 1912,
      "æĮĩå¯¼": 1913,
      "çļĦå¤§": 1914,
      "éª¨": 1915,
      "æŃĮ": 1916,
      "èĹı": 1917,
      "éĩįå¤§": 1918,
      "ä¸ĩåħĥ": 1919,
      "åħ³éĶ®": 1920,
      "æ¨¡å¼ı": 1921,
      "ç³»åĪĹ": 1922,
      "åªĴ": 1923,
      "èĻĳ": 1924,
      "æ¯Ľ": 1925,
      "13": 1926,
      "ä¸Ńåįİ": 1927,
      "éł": 1928,
      "çĲĨè®º": 1929,
      "å°¤": 1930,
      "åıĹåĪ°": 1931,
      "æĪĲæľ¬": 1932,
      "å°ģ": 1933,
      "æľºæ¢°": 1934,
      "äº®": 1935,
      "å®Ĺ": 1936,
      "åıĺåĮĸ": 1937,
      "åĲ¯": 1938,
      "åºŁ": 1939,
      "ä¸įåı¯": 1940,
      "å®¶åºŃ": 1941,
      "è¡¨çİ°": 1942,
      "åĬĽéĩı": 1943,
      "ä¸Ģæ¬¡": 1944,
      "æľĢåĲİ": 1945,
      "åºĵ": 1946,
      "æĹ¢": 1947,
      "è®¸å¤ļ": 1948,
      "çĶŁçī©": 1949,
      "ç³ĸ": 1950,
      "ä¿Ŀè¯ģ": 1951,
      "å¹´æĿ¥": 1952,
      "ç»ıéªĮ": 1953,
      "ç«¥": 1954,
      "éķ¿æľŁ": 1955,
      "çļ®èĤ¤": 1956,
      "ä»¥ä¸ĭ": 1957,
      "åıĤä¸İ": 1958,
      "æĽ²": 1959,
      "å¤ı": 1960,
      "åģļå¥½": 1961,
      "ä¾Ĩ": 1962,
      "ç¡¬": 1963,
      "åĽłç´ł": 1964,
      "æĭ¿": 1965,
      "è¿Ŀ": 1966,
      "æĪĲç«ĭ": 1967,
      "ä»¥æĿ¥": 1968,
      "æı¡": 1969,
      "ä½ĵèĤ²": 1970,
      "åĿĹ": 1971,
      "çŃĶ": 1972,
      "èµ·æĿ¥": 1973,
      "æľĭåıĭ": 1974,
      "éĿĻ": 1975,
      "åĪļ": 1976,
      "çĥĪ": 1977,
      "çĳ": 1978,
      "çļĦéĩįè¦ģ": 1979,
      "éĽ¶": 1980,
      "éģĹ": 1981,
      "é£İéĻ©": 1982,
      "æ¥¼": 1983,
      "èģĶç½ĳ": 1984,
      "æĿ¯": 1985,
      "çĬ¯": 1986,
      "ä¸Ģç§į": 1987,
      "äº¤æµģ": 1988,
      "ä»»åĬ¡": 1989,
      "çłĶåıĳ": 1990,
      "ç¾¤ä¼Ĺ": 1991,
      "æ£Ģæµĭ": 1992,
      "æĪĳçļĦ": 1993,
      "è¡ĮæĶ¿": 1994,
      "é±": 1995,
      "æ¶¦": 1996,
      "æĺ¯ä¸Ģç§į": 1997,
      "æľīçļĦ": 1998,
      "åºĶå½ĵ": 1999,
      "éĹ»": 2000,
      "èĥŀ": 2001,
      "æİªæĸ½": 2002,
      "æ´ģ": 2003,
      "çĸĳ": 2004,
      "ç©ºéĹ´": 2005,
      "éĵ¾": 2006,
      "ä¸½": 2007,
      "ç«ŀäºī": 2008,
      "å®ľ": 2009,
      "ç¹": 2010,
      "åħĪè¿Ľ": 2011,
      "å¦ĩ": 2012,
      "è´¸": 2013,
      "ä¸Ģæł·": 2014,
      "è¿ĳå¹³": 2015,
      "é±¼": 2016,
      "éĻįä½İ": 2017,
      "æ¶Ĥ": 2018,
      "çī¹çĤ¹": 2019,
      "æ¶ī": 2020,
      "å·Ŀ": 2021,
      "ç¬¦": 2022,
      "çŁ¿": 2023,
      "å¹¿æ³Ľ": 2024,
      "ä¹łè¿ĳå¹³": 2025,
      "æŀ¶": 2026,
      "åĨ³å®ļ": 2027,
      "èĦĤ": 2028,
      "æĵįä½ľ": 2029,
      "åħ·ä½ĵ": 2030,
      "é¡¾": 2031,
      "èĶ": 2032,
      ")ãĢģ": 2033,
      "çĸ«æĥħ": 2034,
      "åĬ³åĬ¨": 2035,
      "å¹²éĥ¨": 2036,
      "æĢİä¹Ī": 2037,
      "éĺ¶æ®µ": 2038,
      "å¹¸": 2039,
      "åį«çĶŁ": 2040,
      "åĢŁ": 2041,
      "æ±¡æŁĵ": 2042,
      "æĺ¯åľ¨": 2043,
      "åĨĮ": 2044,
      "æĺ¾ç¤º": 2045,
      "æŃ£å¸¸": 2046,
      "çĥŁ": 2047,
      ")ãĢĤ": 2048,
      "åĪº": 2049,
      "æľŁéĹ´": 2050,
      "å·¨": 2051,
      "çĩĥ": 2052,
      "æ¹¿": 2053,
      "ä¸Ŀ": 2054,
      "å®£ä¼ł": 2055,
      "æ´¾": 2056,
      "å¢ŀå¼º": 2057,
      "æ·±åħ¥": 2058,
      "ä¼ĺç§Ģ": 2059,
      "åĬ±": 2060,
      "èĩªåĬ¨": 2061,
      "éĿ¢ç§¯": 2062,
      "æİ¥åıĹ": 2063,
      "é¤Ĳ": 2064,
      "æ¸Ĳ": 2065,
      "âĢĿãĢģ": 2066,
      "éĵ¶è¡Į": 2067,
      "çİ©": 2068,
      "æ··": 2069,
      "è°¢": 2070,
      "åĨľä¸ļ": 2071,
      "éĺ´": 2072,
      "çī©è´¨": 2073,
      "è´«": 2074,
      "ç»ĵæŀľ": 2075,
      "ä½łçļĦ": 2076,
      "é¥°": 2077,
      "çĹĩçĬ¶": 2078,
      "ç´¯": 2079,
      "å»ºè®®": 2080,
      "æĦıè¯Ĩ": 2081,
      "ç¤¼": 2082,
      "ãĢĭ,": 2083,
      "çļĦé«ĺ": 2084,
      "çŃ¾": 2085,
      "éļĶ": 2086,
      "å¤ľ": 2087,
      "èĽĭ": 2088,
      "ä¼ĳ": 2089,
      "ç»´æĬ¤": 2090,
      "æĹłæ³ķ": 2091,
      "æĸ¹åĲĳ": 2092,
      "å·¥èīº": 2093,
      "åıĳå¸ĥ": 2094,
      "å°±ä¼ļ": 2095,
      "ä»İèĢĮ": 2096,
      "æĶ¶åħ¥": 2097,
      "é¹": 2098,
      "æĦıä¹ī": 2099,
      "ä¸įè¿ĩ": 2100,
      "è®¾æĸ½": 2101,
      "17": 2102,
      "æ±ł": 2103,
      "000": 2104,
      "çļĦäºĭ": 2105,
      "æĮĩåĩº": 2106,
      "åĲī": 2107,
      "åĤ¨": 2108,
      "25": 2109,
      "æĺ¯åĲ¦": 2110,
      "ç¢³": 2111,
      "åİĭåĬĽ": 2112,
      "è´¥": 2113,
      "ä¹Łæľī": 2114,
      "èļ": 2115,
      "å¹¶ä¸Ķ": 2116,
      "æĪĳä»¬çļĦ": 2117,
      "åłĤ": 2118,
      "åĳĺå·¥": 2119,
      "å½¢å¼ı": 2120,
      "çĲĨå¿µ": 2121,
      "é£Łçī©": 2122,
      "æ¡¥": 2123,
      "æī¬": 2124,
      "çĶ³è¯·": 2125,
      "åĮºåŁŁ": 2126,
      "çĽŁ": 2127,
      "å¿«éĢŁ": 2128,
      "å®ŀéªĮ": 2129,
      "ç®±": 2130,
      "å¿ĥçĲĨ": 2131,
      "éľ²": 2132,
      "æĺİç¡®": 2133,
      "çļĩ": 2134,
      "è®°èĢħ": 2135,
      "ç©¿": 2136,
      "çĶ°": 2137,
      "è®¿": 2138,
      "åİħ": 2139,
      "åĽ¢éĺŁ": 2140,
      "çİ°åľº": 2141,
      "å¼±": 2142,
      "èľ": 2143,
      "40": 2144,
      "èµĦéĩĳ": 2145,
      "åĩĿ": 2146,
      "è¡£": 2147,
      "æİĮ": 2148,
      "çº¸": 2149,
      "åľĭ": 2150,
      "æĿĢ": 2151,
      "ç£¨": 2152,
      "çĽĽ": 2153,
      "è·Ŀ": 2154,
      "åĲĹ": 2155,
      "è§¦": 2156,
      "è¸": 2157,
      "å®Įåħ¨": 2158,
      "é«ĺçļĦ": 2159,
      "çİī": 2160,
      "æ»ĳ": 2161,
      "çĶµå½±": 2162,
      "ä¼´": 2163,
      "èĤ¥": 2164,
      "çľĭåĪ°": 2165,
      "å°ļ": 2166,
      "æĺİæĺ¾": 2167,
      "èĪŀ": 2168,
      "è®¡ç®Ĺ": 2169,
      "åħļåĳĺ": 2170,
      "æĹ¥æľ¬": 2171,
      "ç®Ģåįķ": 2172,
      "ç¨ĭåº¦": 2173,
      "çĽĳçĿ£": 2174,
      "ç¡®ä¿Ŀ": 2175,
      "æĪĲæŀľ": 2176,
      "ä½ľåĵģ": 2177,
      "çĽĺ": 2178,
      "æ¸¸æĪı": 2179,
      "ãĢĤâĢľ": 2180,
      "å¤§éĩı": 2181,
      "åĪĽéĢł": 2182,
      "çĶŁåĳ½": 2183,
      "è§ĦèĮĥ": 2184,
      "åħ¶å®ŀ": 2185,
      "æ¸©åº¦": 2186,
      "é½Ĳ": 2187,
      "å¸Ŀ": 2188,
      "éĩĬ": 2189,
      "å´": 2190,
      "ç½ĳç«Ļ": 2191,
      "å°į": 2192,
      "æ»¡è¶³": 2193,
      "å¼ĢæĶ¾": 2194,
      "çİ¯ä¿Ŀ": 2195,
      "çĦ¶åĲİ": 2196,
      "ä¸įå¾Ĺ": 2197,
      "åĨ¬": 2198,
      "è¯¢": 2199,
      "æľºåĪ¶": 2200,
      "åĲĪçĲĨ": 2201,
      "è©": 2202,
      "ç¼©": 2203,
      "æī§è¡Į": 2204,
      "å¸ģ": 2205,
      "çļĦå·¥ä½ľ": 2206,
      "å½Ĵ": 2207,
      "å¹ħ": 2208,
      "èĩªèº«": 2209,
      "çļĦæĥħåĨµ": 2210,
      "åįģåĪĨ": 2211,
      "èģĶåĲĪ": 2212,
      "éĺ»": 2213,
      "éĽ·": 2214,
      "äººç±»": 2215,
      "åŃ¸": 2216,
      "èĦļ": 2217,
      "æļĸ": 2218,
      "åħµ": 2219,
      "éĻ¤äºĨ": 2220,
      "æĳĦ": 2221,
      "è¯Ĺ": 2222,
      "èī¯å¥½çļĦ": 2223,
      "å²Ĺ": 2224,
      "åĩºäºĨ": 2225,
      "åĭĩ": 2226,
      "ç»Ĩèĥŀ": 2227,
      "éģİ": 2228,
      "åĢĳ": 2229,
      "60": 2230,
      "è°ĥæķ´": 2231,
      "è´¡": 2232,
      "åĿı": 2233,
      "é¡¶": 2234,
      "çĻ¼": 2235,
      "éĽĦ": 2236,
      "çļĦè¯Ŀ": 2237,
      "å·¦åı³": 2238,
      "è¡ĮåĬ¨": 2239,
      "åĳ¼": 2240,
      "éĢĶ": 2241,
      "åŁºåľ°": 2242,
      "åĮĸçļĦ": 2243,
      "å¥³æĢ§": 2244,
      "åĪĨåĪ«": 2245,
      "è´¯å½»": 2246,
      "2020": 2247,
      "å³°": 2248,
      "æĿ¨": 2249,
      "å®īè£ħ": 2250,
      "è®¨": 2251,
      "åĸľæ¬¢": 2252,
      "--": 2253,
      "ç¼ĵ": 2254,
      "é¼ĵ": 2255,
      "éĩįè¦ģçļĦ": 2256,
      "æ¯Ķå¦Ĥ": 2257,
      "è¿Ĳè¡Į": 2258,
      "çĬ¶æĢģ": 2259,
      "äº¤æĺĵ": 2260,
      "åħ³æ³¨": 2261,
      "çīĻ": 2262,
      "è¡¨éĿ¢": 2263,
      "æĮĳ": 2264,
      "çļĦæĸ°": 2265,
      "èªī": 2266,
      "ç»Łä¸Ģ": 2267,
      "ç©ºæ°Ķ": 2268,
      "æīĵéĢł": 2269,
      "å²Ľ": 2270,
      "è¯į": 2271,
      "åģı": 2272,
      "å¦Ī": 2273,
      "ä¸»ä»»": 2274,
      "èĢĥèĻĳ": 2275,
      "ç»¿èī²": 2276,
      "æĺ¯ä¸Ģä¸ª": 2277,
      "è¿ĻéĩĮ": 2278,
      "ä¹³": 2279,
      "ä¸¥æł¼": 2280,
      "ä½ĵçļĦ": 2281,
      "ç¬ĳ": 2282,
      "çłģ": 2283,
      "åĢĴ": 2284,
      "åįĪ": 2285,
      "å§Ķåĳĺä¼ļ": 2286,
      "æ³¡": 2287,
      "åı«": 2288,
      "æ¯ķä¸ļ": 2289,
      "çļĦéĹ®é¢ĺ": 2290,
      "æĸĩæĺİ": 2291,
      "åĮĸåŃ¦": 2292,
      "èį¯çī©": 2293,
      "ç¬¦åĲĪ": 2294,
      "èĻļ": 2295,
      "æ¦Ĥ": 2296,
      "å°¤åħ¶": 2297,
      "ç»ıå¸¸": 2298,
      "æľºåħ³": 2299,
      "åħ¬åħ±": 2300,
      "çģ¾": 2301,
      "æħ§": 2302,
      "éĽª": 2303,
      "å¸¦æĿ¥": 2304,
      "å¡Ķ": 2305,
      "è¯¯": 2306,
      "éĥ½æľī": 2307,
      "ç½²": 2308,
      "èĢģå¸Ī": 2309,
      "ä¹Łä¸į": 2310,
      "24": 2311,
      "æ±ĩ": 2312,
      "è¡Ĺ": 2313,
      "çģ¯": 2314,
      "æĸĳ": 2315,
      "ä»Ĭå¤©": 2316,
      "è¶ĬæĿ¥": 2317,
      "ç§ĳçłĶ": 2318,
      "çĥ§": 2319,
      "æŃ¤å¤ĸ": 2320,
      "æ´ĭ": 2321,
      "ä¿ĿéĻ©": 2322,
      "è¶ĬæĿ¥è¶Ĭ": 2323,
      "åģļåĪ°": 2324,
      "ç¬Ķ": 2325,
      "åŁºéĩĳ": 2326,
      "å¾ª": 2327,
      "åĬłå¿«": 2328,
      "åĲ§": 2329,
      "å±ŀäºİ": 2330,
      "ç»ĦæĪĲ": 2331,
      "ä¸įåĲĮçļĦ": 2332,
      "æĦŁæŁĵ": 2333,
      "æĿŁ": 2334,
      "å°ıæĹ¶": 2335,
      "æģ¶": 2336,
      "å°¿": 2337,
      "æĮ¯": 2338,
      "åı¥è¯Ŀ": 2339,
      "åĪ¶ä½ľ": 2340,
      "æ³¨åĨĮ": 2341,
      "æĻ®éĢļ": 2342,
      "éĩĳå±ŀ": 2343,
      "åĿĲ": 2344,
      "åľĨ": 2345,
      "ç½ļ": 2346,
      "æķı": 2347,
      "æķ°åŃĹ": 2348,
      "è®¢": 2349,
      "éĿĴå¹´": 2350,
      "èĪĩ": 2351,
      "æ²ī": 2352,
      "2021": 2353,
      "ç§ģ": 2354,
      "çĶŁçļĦ": 2355,
      "æŃ£åľ¨": 2356,
      "199": 2357,
      "åıªæĺ¯": 2358,
      "æ³°": 2359,
      "ç§ĭ": 2360,
      "æ½®": 2361,
      "äºĴèģĶç½ĳ": 2362,
      "æĭį": 2363,
      "ä¸ĭéĻį": 2364,
      "è´¡çĮ®": 2365,
      "æĿ¥çľĭ": 2366,
      "è¿Ĳè¾ĵ": 2367,
      "è¶£": 2368,
      "æ®Ĭ": 2369,
      "é¦ĸåħĪ": 2370,
      "çº·": 2371,
      "çĻĮ": 2372,
      "è°ĥæŁ¥": 2373,
      "èĲ¥åħ»": 2374,
      "å¡ŀ": 2375,
      "æķĪçİĩ": 2376,
      "å¢Ļ": 2377,
      "åĳĪ": 2378,
      "ç¹ģ": 2379,
      "è®¤çľŁ": 2380,
      "æľīäºĽ": 2381,
      "éĻĨ": 2382,
      "æĪĲç»©": 2383,
      "ä¸ºä¸»": 2384,
      "è¾Ĩ": 2385,
      "äºĶè¡Į": 2386,
      "æ¥Ń": 2387,
      "åĦ¿ç«¥": 2388,
      "å«": 2389,
      "çĽ®çļĦ": 2390,
      "æĹ¶æľŁ": 2391,
      "åĨ°": 2392,
      "æľ«": 2393,
      "æ£®": 2394,
      "è±Ĩ": 2395,
      "è¡¡": 2396,
      "æ°§åĮĸ": 2397,
      "å®½": 2398,
      "æĸ°æĹ¶ä»£": 2399,
      "åħļå§Ķ": 2400,
      "åİŁåĪĻ": 2401,
      "æľºä¼ļ": 2402,
      "ä¹ĭåīį": 2403,
      "æļ´": 2404,
      "åªĴä½ĵ": 2405,
      "åĵĪ": 2406,
      "çľŁæŃ£": 2407,
      "åĨľæĿĳ": 2408,
      "æĺł": 2409,
      "æĦıè§ģ": 2410,
      "æľĢç»Ī": 2411,
      "èĥĥ": 2412,
      "éĴĪå¯¹": 2413,
      "åĪĳ": 2414,
      "è´´": 2415,
      "æ´¥": 2416,
      "ç¡®å®ļ": 2417,
      "æĶ¹åıĺ": 2418,
      "çħ¤": 2419,
      "çĪĨ": 2420,
      "å¾Ħ": 2421,
      "çİ»": 2422,
      "åĬŀåħ¬": 2423,
      "åŃĶ": 2424,
      "an": 2425,
      "é¢ľ": 2426,
      "è®¤è¯Ĩ": 2427,
      "ä¼į": 2428,
      "éĩİ": 2429,
      "åįµ": 2430,
      "åĶĲ": 2431,
      "ç¥ĸ": 2432,
      "æ¾³": 2433,
      "åŃ¦ç§ĳ": 2434,
      "æ¢ħ": 2435,
      "å¯¿": 2436,
      "__": 2437,
      "80": 2438,
      "çĿ¡": 2439,
      "åı¦å¤ĸ": 2440,
      "æķħäºĭ": 2441,
      "æķ´ä¸ª": 2442,
      "2019": 2443,
      "ä¹Ļ": 2444,
      "åĪ¶å®ļ": 2445,
      "ç§ĺ": 2446,
      "å°±ä¸ļ": 2447,
      "éĢŁåº¦": 2448,
      "çº¯": 2449,
      "è·¨": 2450,
      "æĭĵ": 2451,
      "ä¹Łä¼ļ": 2452,
      "éļĲ": 2453,
      "è¼": 2454,
      "å¹¿å¤§": 2455,
      "æķ´ä½ĵ": 2456,
      "ä¸Ģä¸ĭ": 2457,
      "çĴĥ": 2458,
      "æµĵ": 2459,
      "å¯»": 2460,
      "æ¢ģ": 2461,
      "æĥł": 2462,
      "åĬĽçļĦ": 2463,
      "çĦ¦": 2464,
      "é¾Ħ": 2465,
      "éĿ¢å¯¹": 2466,
      "èĪ¹": 2467,
      "23": 2468,
      "èĢĹ": 2469,
      "åıªè¦ģ": 2470,
      "äºĮåįģ": 2471,
      "èµĦäº§": 2472,
      "çĽĲ": 2473,
      "è¯¾ç¨ĭ": 2474,
      "èĢĥè¯ķ": 2475,
      "åĢį": 2476,
      "æĶ¹åĸĦ": 2477,
      "æĢķ": 2478,
      "éĽĨä¸Ń": 2479,
      "å¯Ĵ": 2480,
      "ç¶ĵ": 2481,
      "çī©æµģ": 2482,
      "åı¬": 2483,
      "éŁ©": 2484,
      "åįıä¼ļ": 2485,
      "æ³¥": 2486,
      "æĸ¼": 2487,
      "åįĸ": 2488,
      "ä¼°": 2489,
      "æ²»çĲĨ": 2490,
      "ä»İäºĭ": 2491,
      "å¹ķ": 2492,
      "çī¢": 2493,
      "åĩºçļĦ": 2494,
      "åĸĿ": 2495,
      "éº»": 2496,
      "åħ±äº§": 2497,
      "æ¶Īè´¹èĢħ": 2498,
      "æĸ¹ä¾¿": 2499,
      "åĲİçļĦ": 2500,
      "ä¾Ŀæ³ķ": 2501,
      "å¹¶ä¸į": 2502,
      "åķĨä¸ļ": 2503,
      "2018": 2504,
      "æľīä¸Ģ": 2505,
      "ç¯ĩ": 2506,
      "ç»ķ": 2507,
      "æī¶": 2508,
      "èĳ£": 2509,
      "ä¾§": 2510,
      "æł¹æľ¬": 2511,
      "æĬĺ": 2512,
      "å¦ĤæŃ¤": 2513,
      "ç§Ł": 2514,
      "è¿Ļæł·çļĦ": 2515,
      "âĢĿãĢģâĢľ": 2516,
      "21": 2517,
      "ä¹±": 2518,
      "çİ»çĴĥ": 2519,
      "åĽ°éļ¾": 2520,
      "é¦Ļæ¸¯": 2521,
      "åĪĽä¸ļ": 2522,
      "æİī": 2523,
      "éĢĤåĲĪ": 2524,
      "å±ĭ": 2525,
      "åħ¨éĥ¨": 2526,
      "å°Ĭ": 2527,
      "éģĵè·¯": 2528,
      "åĭķ": 2529,
      "æģ¢": 2530,
      "æ¥ļ": 2531,
      "è¿ĩåİ»": 2532,
      "éģį": 2533,
      "èĤ¿": 2534,
      "å¾Į": 2535,
      "èµ¢": 2536,
      "ä¿Ħ": 2537,
      "å¼ºè°ĥ": 2538,
      "éĵĿ": 2539,
      "å¤ļçļĦ": 2540,
      "çı¾": 2541,
      "æĹĹ": 2542,
      "å¥¶": 2543,
      "èĢ³": 2544,
      "å·¥ä½ľçļĦ": 2545,
      "éĿ©åĳ½": 2546,
      "éĩįè§Ĩ": 2547,
      "åıįåºĶ": 2548,
      "æĹ§": 2549,
      "äº¡": 2550,
      "åĬŀæ³ķ": 2551,
      "ä¸įå°ĳ": 2552,
      "å½ĵæĹ¶": 2553,
      "ãĢģãĢĬ": 2554,
      "æĥ¯": 2555,
      "éĹŃ": 2556,
      "éĺµ": 2557,
      "æĬĢèĥ½": 2558,
      "æĹ¥å¸¸": 2559,
      "æº¶": 2560,
      "èĴĻ": 2561,
      "åľĪ": 2562,
      "å¤ļç§į": 2563,
      "ä¸Ģå®ļè¦ģ": 2564,
      "å½ĵåľ°": 2565,
      "22": 2566,
      "æ²Ł": 2567,
      "2022": 2568,
      "å§ĭç»Ī": 2569,
      "çĶµè§Ĩ": 2570,
      "ç¾İåħĥ": 2571,
      "ä¼Ĭ": 2572,
      "æĦŁè§ī": 2573,
      "åĲ¨": 2574,
      "æŃ£ç¡®": 2575,
      "è¿ĲèĲ¥": 2576,
      "çī¹æ®Ĭ": 2577,
      "èĥİ": 2578,
      "æĿ¥èĩª": 2579,
      "ä¸ªæľĪ": 2580,
      "è·ĳ": 2581,
      "è´¹çĶ¨": 2582,
      "è¯º": 2583,
      "é«ĺè´¨éĩı": 2584,
      "æ¡£": 2585,
      "æ²¿": 2586,
      "çĲĨè§£": 2587,
      "æģ©": 2588,
      "éī": 2589,
      "ä¸Ģå®ļçļĦ": 2590,
      "æµª": 2591,
      "çĽ¸å¯¹": 2592,
      "éĥ½ä¼ļ": 2593,
      "è¯¦": 2594,
      "éĩĩåıĸ": 2595,
      "éĢļå¸¸": 2596,
      "è¦Ĩ": 2597,
      "èĥ¡": 2598,
      "èĤº": 2599,
      "çĲĥéĺŁ": 2600,
      "æĻºæħ§": 2601,
      "ä¼ģä¸ļçļĦ": 2602,
      "è¿·": 2603,
      "èĤ¯": 2604,
      "åĩĨå¤ĩ": 2605,
      "èĤĿ": 2606,
      "èĤł": 2607,
      "èħ¹": 2608,
      "æĪª": 2609,
      "ä¾µ": 2610,
      "ç²Ĵ": 2611,
      "çĽ¸ä¿¡": 2612,
      "å¼ºåĮĸ": 2613,
      "è¶ĭ": 2614,
      "åĲĦç±»": 2615,
      "ç¯®": 2616,
      "çŃ¹": 2617,
      "åĮħè£ħ": 2618,
      "ç¼ĺ": 2619,
      "çĽĳç®¡": 2620,
      "é¥®é£Ł": 2621,
      "è½¯ä»¶": 2622,
      "èĲ¨": 2623,
      "çªĹ": 2624,
      "é¸¡": 2625,
      "éľĩ": 2626,
      "èģĶç³»": 2627,
      "ä¸ŃåĮ»": 2628,
      "æģ¢å¤į": 2629,
      "é«ĺåº¦": 2630,
      "çİ°è±¡": 2631,
      "±ä¹Ĳ": 2632,
      "æķĻæİĪ": 2633,
      "å®ĥçļĦ": 2634,
      "å¼¹": 2635,
      "è¿ħ": 2636,
      "å¤§ä¼ļ": 2637,
      "70": 2638,
      "å®īæİĴ": 2639,
      "éĨĴ": 2640,
      "é«ĺæł¡": 2641,
      "çĵ¦": 2642,
      "åŃĻ": 2643,
      "é¢Ħéĺ²": 2644,
      "è´¨çļĦ": 2645,
      "æŃ¤æ¬¡": 2646,
      "åĩºåı£": 2647,
      "åĲĦé¡¹": 2648,
      "å¿ĺ": 2649,
      "å±±ä¸ľ": 2650,
      "æŃ£å¼ı": 2651,
      "æ¯ıå¤©": 2652,
      "å¥ĭæĸĹ": 2653,
      "èĤĮ": 2654,
      "ç²ĺ": 2655,
      "æ³½": 2656,
      "é«Ķ": 2657,
      "å¹¼": 2658,
      "èµĦæľ¬": 2659,
      "éī´": 2660,
      "åħ·å¤ĩ": 2661,
      "«çĹ": 2662,
      "è¾ħ": 2663,
      "èĩªçĶ±": 2664,
      "åĪ·": 2665,
      "çŀ": 2666,
      "çİ°ä»£åĮĸ": 2667,
      "æı´": 2668,
      "ä¸ľè¥¿": 2669,
      "æ¯«": 2670,
      "åĮ»çĶŁ": 2671,
      "èŀįåĲĪ": 2672,
      "ãĢĲ": 2673,
      "åħ¼": 2674,
      "åĪ¸": 2675,
      "ãĢĳ": 2676,
      "ä¸»é¢ĺ": 2677,
      "ä»ģ": 2678,
      "åıĮæĸ¹": 2679,
      "åĲĮå¿Ĺ": 2680,
      "28": 2681,
      "è§īå¾Ĺ": 2682,
      "éķľ": 2683,
      "æ®ĸ": 2684,
      "æ½ľ": 2685,
      "æīİ": 2686,
      "ä¾ĽåºĶ": 2687,
      "å°ĺ": 2688,
      "ç«Ł": 2689,
      "èµµ": 2690,
      "å¤§å¤ļ": 2691,
      "æ´Ľ": 2692,
      "èĢĮæĺ¯": 2693,
      "éŁ³ä¹Ĳ": 2694,
      "ä¸įè¶³": 2695,
      "æĬķåħ¥": 2696,
      "åĴ¨": 2697,
      "æ¤įçī©": 2698,
      "è¯¸": 2699,
      "åĢº": 2700,
      "åķĨåĵģ": 2701,
      "åĲĪåĲĮ": 2702,
      "ç¿»": 2703,
      "éĽħ": 2704,
      "åĪĨä¸º": 2705,
      "ä¸ŃåĽ½çī¹èī²": 2706,
      "çĶĺ": 2707,
      "åį·": 2708,
      "ä¸ĭæĿ¥": 2709,
      "åĪ©çĽĬ": 2710,
      "å¹³æĸ¹": 2711,
      "æķ¬": 2712,
      "éĶħ": 2713,
      "èªª": 2714,
      "çĤ¼": 2715,
      "in": 2716,
      "å¹¸ç¦ı": 2717,
      "éĺ²æŃ¢": 2718,
      "æ¹¾": 2719,
      "æĽ¾ç»ı": 2720,
      "åĬ¨åĬĽ": 2721,
      "èĭĹ": 2722,
      "èĵĿ": 2723,
      "åħ¬éĩĮ": 2724,
      "æĹłè®º": 2725,
      "æ©Ł": 2726,
      "åľ³": 2727,
      "æīĭæľ¯": 2728,
      "åĶ¯": 2729,
      "è°ĵ": 2730,
      "è£ģ": 2731,
      "åĲĮæ¯Ķ": 2732,
      "äººä½ĵ": 2733,
      "çĪ¶æ¯į": 2734,
      "åĩºæĿ¥": 2735,
      "è§Ĩé¢ĳ": 2736,
      "«çĹ«": 2737,
      "çĻ«çĹ«": 2738,
      "æĲŃ": 2739,
      "ä¸įåĪ°": 2740,
      "æ·¡": 2741,
      "åĲ´": 2742,
      "æ·±åľ³": 2743,
      "èģĮå·¥": 2744,
      "éķ·": 2745,
      "ä½įäºİ": 2746,
      "èĦī": 2747,
      "ä¸ĢåĪĩ": 2748,
      "éĺŁä¼į": 2749,
      "çº¤": 2750,
      "åĬłåħ¥": 2751,
      "æĳ©": 2752,
      "é²ģ": 2753,
      "åĨħçļĦ": 2754,
      "è¯´è¿ĩ": 2755,
      "ä¹Į": 2756,
      "å¹¿ä¸ľ": 2757,
      "èµĦæĸĻ": 2758,
      "ç¤¾åĮº": 2759,
      "å¿ħè¦ģ": 2760,
      "26": 2761,
      "åĭ¤": 2762,
      "åĨįæ¬¡": 2763,
      "æł·çļĦ": 2764,
      "æµĻ": 2765,
      "åĴ¨è¯¢": 2766,
      "è´·": 2767,
      "æĢ§åĴĮ": 2768,
      "æĸ°éĹ»": 2769,
      "æķ¢": 2770,
      "ä¹łæĥ¯": 2771,
      "ä¸´åºĬ": 2772,
      "è¾Ľ": 2773,
      "åĮ»åŃ¦": 2774,
      "è¿ª": 2775,
      "æ¶¨": 2776,
      "å½ĵçĦ¶": 2777,
      "è°ģ": 2778,
      "è´¸æĺĵ": 2779,
      "ä»¥åĲİ": 2780,
      "åĵªäºĽ": 2781,
      "æķ°éĩı": 2782,
      "ç·": 2783,
      "æĢ»ä¹¦è®°": 2784,
      "æľīæīĢ": 2785,
      "é¥Ń": 2786,
      "ä¹ı": 2787,
      "ä½ĵçİ°": 2788,
      "ä½įç½®": 2789,
      "2017": 2790,
      "çĶŁç´ł": 2791,
      "å®ĥä»¬": 2792,
      "çĻ£": 2793,
      "è½´": 2794,
      "èħº": 2795,
      "æī©å¤§": 2796,
      "Â°": 2797,
      "çļĦå°ı": 2798,
      "å¢¨": 2799,
      "æľīæľº": 2800,
      "äº¦": 2801,
      "ä¼Łå¤§": 2802,
      "çĦ¶èĢĮ": 2803,
      "æŀĦå»º": 2804,
      "çŃīæĸ¹éĿ¢": 2805,
      "æīĭæľº": 2806,
      "æĽ¿": 2807,
      "ä¸ģ": 2808,
      "ãĢĭãĢģãĢĬ": 2809,
      "ç¬¬åįģ": 2810,
      "æľĹ": 2811,
      "çĹħæ¯Ĵ": 2812,
      "åĩ¡": 2813,
      "è¯Ħä»·": 2814,
      "æĽ´å¥½": 2815,
      "çĳŀ": 2816,
      "ä¹ĺ": 2817,
      "éģµ": 2818,
      "æĤī": 2819,
      "ç¨ĭåºı": 2820,
      "èĸĦ": 2821,
      "ä¸»åĬ¨": 2822,
      "å©´": 2823,
      "éĢĲæ¸Ĳ": 2824,
      "åĵ¥": 2825,
      "å®ĭ": 2826,
      "è§Ī": 2827,
      "æĪĲéķ¿": 2828,
      "äº§åĵģçļĦ": 2829,
      "è¿Ľè¡ĮäºĨ": 2830,
      "èļĢ": 2831,
      "è£Ĥ": 2832,
      "ä¿Ĺ": 2833,
      "åĶ±": 2834,
      "è«": 2835,
      "å½¢è±¡": 2836,
      "åľŁåľ°": 2837,
      "å£®": 2838,
      "å¤ļä¸ª": 2839,
      "åı¦ä¸Ģ": 2840,
      "çīĽçļ®": 2841,
      "çļĦä¸»è¦ģ": 2842,
      "ä¹Łåı¯ä»¥": 2843,
      "ç´«": 2844,
      "è¿ŀç»Ń": 2845,
      "èģĺ": 2846,
      "é¡¿": 2847,
      "åĪºæ¿Ģ": 2848,
      "åĸ·": 2849,
      "å¤§åŀĭ": 2850,
      "éĢĤåºĶ": 2851,
      "æ®ĭ": 2852,
      "èµĽåŃ£": 2853,
      "å¤º": 2854,
      "çļĦä½ľçĶ¨": 2855,
      "çªģçł´": 2856,
      "æĬµ": 2857,
      "ç»ª": 2858,
      "èĩªæĪĳ": 2859,
      "èµĦæł¼": 2860,
      "27": 2861,
      "æ·»": 2862,
      "åºĦ": 2863,
      "æĽ¼": 2864,
      "çıł": 2865,
      "æľĢå¤§çļĦ": 2866,
      "ä¸»å¸Ń": 2867,
      "èĪĴ": 2868,
      "å¾Ģå¾Ģ": 2869,
      "è°·": 2870,
      "æ¯ıä¸ª": 2871,
      "æ¶µ": 2872,
      "ç¬¬åĽĽ": 2873,
      "è¿Ļåı¥è¯Ŀ": 2874,
      "å¼ĥ": 2875,
      "èĽĭçĻ½": 2876,
      "è¿¹": 2877,
      "åĲĮåŃ¦": 2878,
      "æĥĬ": 2879,
      "ç¤ºèĮĥ": 2880,
      "å¼ºåº¦": 2881,
      "æľĢå¤§": 2882,
      "åľ£": 2883,
      "å¤Ħäºİ": 2884,
      "ä¼ĺåĮĸ": 2885,
      "ç¥Ŀ": 2886,
      "å¦»": 2887,
      "åĵģè´¨": 2888,
      "æĭŁ": 2889,
      "ä¸ĸçºª": 2890,
      "å¼Ł": 2891,
      "åİĤå®¶": 2892,
      "å¼ķå¯¼": 2893,
      "æ°ı": 2894,
      "èĦı": 2895,
      "åįĩçº§": 2896,
      "å¤įæĿĤ": 2897,
      "éĥĳ": 2898,
      "æĥ³è¦ģ": 2899,
      "ä»įçĦ¶": 2900,
      "çĹħæĥħ": 2901,
      "è¯´æĺİ": 2902,
      "æİĮæı¡": 2903,
      "çĬ¯ç½ª": 2904,
      "æī¿æĭħ": 2905,
      "æĬ¥éģĵ": 2906,
      "åĿļå®ļ": 2907,
      "çĺ¤": 2908,
      "çļĦå½±åĵį": 2909,
      "500": 2910,
      "æĹ¦": 2911,
      "ä¸ºä»Ģä¹Ī": 2912,
      "ä¸ĭçļĦ": 2913,
      "ä¾ĭå¦Ĥ": 2914,
      "æĬ½": 2915,
      "è¿ĺè¦ģ": 2916,
      "åĳĬè¯ī": 2917,
      "äººåı£": 2918,
      "æģĴ": 2919,
      "ä»ĸä»¬çļĦ": 2920,
      "åģ¿": 2921,
      "åħįçĸ«": 2922,
      "æľīäºĨ": 2923,
      "éĵľ": 2924,
      "çªģåĩº": 2925,
      "é©¾": 2926,
      "ä¼¦": 2927,
      "éĸĵ": 2928,
      "å¹¿å·ŀ": 2929,
      "å®ŀåĬĽ": 2930,
      "ä¼Ļ": 2931,
      "æ¶īåıĬ": 2932,
      "æĺ¯ä»Ģä¹Ī": 2933,
      "è´Ńä¹°": 2934,
      "æĿ°": 2935,
      "æµ®": 2936,
      "æ·±åĪ»": 2937,
      "åı¯èĥ½ä¼ļ": 2938,
      "æ§": 2939,
      "ç»Łè®¡": 2940,
      "éĤ£äºĽ": 2941,
      "å®ĩ": 2942,
      "çīĽçļ®çĻ£": 2943,
      "ä½ĵéªĮ": 2944,
      "æ¼«": 2945,
      "æĪĲåĳĺ": 2946,
      "èİ«": 2947,
      "çĲĨæĥ³": 2948,
      "æľīäºº": 2949,
      "åĨħéĥ¨": 2950,
      "åĩŃ": 2951,
      "çĦ¡": 2952,
      "å¡ĳæĸĻ": 2953,
      "å»ī": 2954,
      "èĬĤèĥ½": 2955,
      "åĮĸå·¥": 2956,
      "å¹´åº¦": 2957,
      "ä¸ŃåĽ½çī¹èī²ç¤¾ä¼ļä¸»ä¹ī": 2958,
      "åįıè°ĥ": 2959,
      "è¯ģæĺİ": 2960,
      "èĦ¸": 2961,
      "å±ķç¤º": 2962,
      "åıªèĥ½": 2963,
      "æĪĲäºĨ": 2964,
      "éĶĭ": 2965,
      "ä¸Ĭå¸Ĥ": 2966,
      "åĪ©äºİ": 2967,
      "åħ¬å¼Ģ": 2968,
      "è®¯": 2969,
      "çĶ¨çļĦ": 2970,
      "çĮª": 2971,
      "åĪĢ": 2972,
      "æľ¬æ¬¡": 2973,
      "å±¥": 2974,
      "å±ħæ°ĳ": 2975,
      "çķ¶": 2976,
      "çī¹åĪ«æĺ¯": 2977,
      "å¸¸è§ģ": 2978,
      "æľĢé«ĺ": 2979,
      "å¯¦": 2980,
      "å£ģ": 2981,
      "èĻ«": 2982,
      "å¿ł": 2983,
      "å§ĵ": 2984,
      "éĢ²": 2985,
      "çĽ¸æ¯Ķ": 2986,
      "å¾Ĳ": 2987,
      "è°ĭ": 2988,
      "é«ĺéĢŁ": 2989,
      "æĮĳæĪĺ": 2990,
      "90": 2991,
      "éĩıçļĦ": 2992,
      "æĸĩä»¶": 2993,
      "åĲ«æľī": 2994,
      "æľ±": 2995,
      "æĻ¶": 2996,
      "ä¸Ģä½ĵ": 2997,
      "è´¢æĶ¿": 2998,
      "ç§°ä¸º": 2999,
      "é¢ĨåħĪ": 3000,
      "æµĻæ±Ł": 3001,
      "æ±¤": 3002,
      "æ»¤": 3003,
      "ä¸īä¸ª": 3004,
      "ç´łè´¨": 3005,
      "çģ°": 3006,
      "å²Ĺä½į": 3007,
      "çİ°å®ŀ": 3008,
      "éĹľ": 3009,
      "çıį": 3010,
      "èĴ¸": 3011,
      "ä¸¹": 3012,
      "éĥ¨ç½²": 3013,
      "35": 3014,
      "æľīçĿĢ": 3015,
      "åİ»å¹´": 3016,
      "å±ı": 3017,
      "æľºåĻ¨": 3018,
      "å¹´è½»": 3019,
      "éģŃ": 3020,
      "äºĭä»¶": 3021,
      "è¿ĽæŃ¥": 3022,
      "è¿½æ±Ĥ": 3023,
      "èĩªä¸»": 3024,
      "æ°¨": 3025,
      "æ³ī": 3026,
      "æĢĿèĢĥ": 3027,
      "å·§": 3028,
      "åħ§": 3029,
      "èī¯å¥½": 3030,
      "æĪ´": 3031,
      "å®¶éķ¿": 3032,
      "è´Łè´£äºº": 3033,
      "èĳ£äºĭ": 3034,
      "æİ¢ç´¢": 3035,
      "ç¢į": 3036,
      "çģŃ": 3037,
      "æİ¥è§¦": 3038,
      "èħĶ": 3039,
      "ä¸Ģå¹´": 3040,
      "æ·±åĮĸ": 3041,
      "æĭľ": 3042,
      "è§Ĵåº¦": 3043,
      "åĪĨåŃĲ": 3044,
      "éĸĭ": 3045,
      "ä¸¾åĬŀ": 3046,
      ")(": 3047,
      "åĽ½åĬ¡": 3048,
      "æĶ¯ä»ĺ": 3049,
      "åĬ¨çī©": 3050,
      "å½ĵåīį": 3051,
      "æĺĮ": 3052,
      "ç£ģ": 3053,
      "åľ°ä½į": 3054,
      "æĮĤ": 3055,
      "å¼ºçļĦ": 3056,
      "è¿ħéĢŁ": 3057,
      "åħĪçĶŁ": 3058,
      "æİ¨å¹¿": 3059,
      "çĩ¥": 3060,
      "çŃīçŃī": 3061,
      "å¾ªçİ¯": 3062,
      "ç¾Ĭ": 3063,
      "çĶµæ±ł": 3064,
      "è»": 3065,
      "ä½¿åĳ½": 3066,
      "èĤ¡ä»½": 3067,
      "åŃ¦æľ¯": 3068,
      "å¦Ĥä»Ĭ": 3069,
      "ç¨®": 3070,
      "2016": 3071,
      "çĶŁæ´»ä¸Ń": 3072,
      "ç»ıçĲĨ": 3073,
      "çļĦæĹ¶éĹ´": 3074,
      "çļĦåŁºç¡Ģ": 3075,
      "ä¼łæĴŃ": 3076,
      "èĤ¾": 3077,
      "ç±»åŀĭ": 3078,
      "åħ±äº§åħļ": 3079,
      "èį·": 3080,
      "åĺī": 3081,
      "å±ĳ": 3082,
      "æ³ķéĻ¢": 3083,
      "æĢ»ç»ĵ": 3084,
      "å²¸": 3085,
      "æ¬²": 3086,
      "åħ¨ä½ĵ": 3087,
      "æĩī": 3088,
      "è¯ķéªĮ": 3089,
      "29": 3090,
      "è¿ĲçĶ¨": 3091,
      "ç²®": 3092,
      "å¤§åĬĽ": 3093,
      "åĩºçĶŁ": 3094,
      "æĬĳ": 3095,
      "ç»ıåİĨ": 3096,
      "å¹³åĿĩ": 3097,
      "æ¯ıå¹´": 3098,
      "åıĬåħ¶": 3099,
      "åĨłåĨĽ": 3100,
      "åħ¬åı¸çļĦ": 3101,
      "å°¤åħ¶æĺ¯": 3102,
      "åĽĽå·Ŀ": 3103,
      "çĲĥåĳĺ": 3104,
      "çĶŁéķ¿": 3105,
      "è´Ŀ": 3106,
      "æĴĳ": 3107,
      "éĽ»": 3108,
      "çļĦæ²»çĸĹ": 3109,
      "æĹº": 3110,
      "ç»ĵæĿŁ": 3111,
      "è¯Ńè¨Ģ": 3112,
      "é»ĺ": 3113,
      "ä¸¾è¡Į": 3114,
      "æ²³åįĹ": 3115,
      "è´¦": 3116,
      "éĤĦ": 3117,
      "ç»´çĶŁç´ł": 3118,
      "å§Ĩ": 3119,
      "éĿ¢ä¸´": 3120,
      "çĭ¬ç«ĭ": 3121,
      "è®Ńç»ĥ": 3122,
      "èĢĮè¨Ģ": 3123,
      "ä¹ĭéĹ´çļĦ": 3124,
      "è¿Ļä¸ªéĹ®é¢ĺ": 3125,
      "éĺħ": 3126,
      "äººå·¥": 3127,
      "äºĭæķħ": 3128,
      "æĦĪ": 3129,
      "åĽ½åĬ¡éĻ¢": 3130,
      "åĲĦåľ°": 3131,
      "åĿĢ": 3132,
      "çĽ¸å½ĵ": 3133,
      "è®¾ç½®": 3134,
      "åį±å®³": 3135,
      "å°±åı¯ä»¥": 3136,
      "çĥ¯": 3137,
      "éĻ¶": 3138,
      "æħİ": 3139,
      "èĢħçļĦ": 3140,
      "ä¸»ä½ĵ": 3141,
      "è½¨": 3142,
      "ç§¦": 3143,
      "äºĭæĥħ": 3144,
      "çĶ¢": 3145,
      "åĲĽ": 3146,
      "åĲ¸å¼ķ": 3147,
      "äººå£«": 3148,
      "æĭĴ": 3149,
      "è§Ĥä¼Ĺ": 3150,
      "å¤ªéĺ³": 3151,
      "åį³ä½¿": 3152,
      "éĿ¢çļĦ": 3153,
      "å®ı": 3154,
      "æĥħç»ª": 3155,
      "æĺ¯æĮĩ": 3156,
      "çĽ¸åºĶ": 3157,
      "éħįåĲĪ": 3158,
      "åĽ´ç»ķ": 3159,
      "åŁºå±Ĥ": 3160,
      "ä¼¯": 3161,
      "åĢ¼å¾Ĺ": 3162,
      "èµŀ": 3163,
      "çŁ¥åĲį": 3164,
      "è¿ĳå¹´æĿ¥": 3165,
      "on": 3166,
      "éĩįåºĨ": 3167,
      "æŁĶ": 3168,
      "æ¡ĥ": 3169,
      "è±ª": 3170,
      "ä¸Ńå°ı": 3171,
      "é¢Ĺ": 3172,
      "ä¿Ŀæ¸©": 3173,
      "è·³": 3174,
      "çĬ¶åĨµ": 3175,
      "å¤ļå°ĳ": 3176,
      "æ¦ľ": 3177,
      "è¾ĳ": 3178,
      "è®²è¯Ŀ": 3179,
      "äºĭå®ŀ": 3180,
      "æĿĨ": 3181,
      "åķĨæłĩ": 3182,
      "2015": 3183,
      "æĹ¨": 3184,
      "æµĭè¯ķ": 3185,
      "æ¬¢è¿İ": 3186,
      "åĲ¸æĶ¶": 3187,
      "æ±Łèĭı": 3188,
      "è¡Ģç®¡": 3189,
      "éĵģè·¯": 3190,
      "éĢĴ": 3191,
      "æľ¬èº«": 3192,
      "åĭĴ": 3193,
      "æ¬§æ´²": 3194,
      "ç±į": 3195,
      "æľºçļĦ": 3196,
      "èİ±": 3197,
      "çļĦå¿ĥ": 3198,
      "éŀ": 3199,
      "ä»¤äºº": 3200,
      "å±ķå¼Ģ": 3201,
      "çĵľ": 3202,
      "æĪĲå°±": 3203,
      "âĢĿâĢľ": 3204,
      "æ°ĳä¸»": 3205,
      "åħĥç´ł": 3206,
      "ç½Ĺæĸ¯": 3207,
      "æĩĤ": 3208,
      "èĢģå¹´": 3209,
      "åĩĨç¡®": 3210,
      "æį·": 3211,
      "èĲ¥éĶĢ": 3212,
      "è¿«": 3213,
      "å¹¿åĳĬ": 3214,
      "æĬ¢": 3215,
      "ç»ĻäºĪ": 3216,
      "å¡«": 3217,
      "èķ": 3218,
      "å¥ī": 3219,
      "çº¤ç»´": 3220,
      "æıı": 3221,
      "èĤ¯å®ļ": 3222,
      "éĶĪ": 3223,
      "åħĪåĲİ": 3224,
      "å¾Īå¤§": 3225,
      "è¾ī": 3226,
      "er": 3227,
      "æĳĨ": 3228,
      "é¼ĵåĬ±": 3229,
      "åŃĲçļĦ": 3230,
      "å¾·åĽ½": 3231,
      "ç¥ŀç»ı": 3232,
      "æİĴåĲį": 3233,
      "ä¸°å¯ĮçļĦ": 3234,
      "å®ŀè¡Į": 3235,
      "è¶ĭåĬ¿": 3236,
      "ä¸»æĮģ": 3237,
      "æ³µ": 3238,
      "éĽķ": 3239,
      "éĻ·": 3240,
      "é«ĺæķĪ": 3241,
      "æŁ±": 3242,
      ",ãĢĬ": 3243,
      "äººçĶŁ": 3244,
      "æļĹ": 3245,
      "æŃ¦æ±ī": 3246,
      "æĹĭ": 3247,
      "è¦ĨçĽĸ": 3248,
      "æ±¡æ°´": 3249,
      "æī¾åĪ°": 3250,
      "æ³Į": 3251,
      "èģĶèµĽ": 3252,
      "åħ¬è·¯": 3253,
      "æ´ŀ": 3254,
      "é£ŁçĶ¨": 3255,
      "å¤©çĦ¶": 3256,
      "åĿ¦": 3257,
      "é©¬åħĭ": 3258,
      "æ¯ıä¸Ģ": 3259,
      "èĭ±åĽ½": 3260,
      "çº¹": 3261,
      "æīĭæ®µ": 3262,
      "å°ĳå¹´": 3263,
      "éħĴåºĹ": 3264,
      "198": 3265,
      "çĤī": 3266,
      "åįļå£«": 3267,
      "åĽ¢ç»ĵ": 3268,
      "å·¥åħ·": 3269,
      "çĽ¸äºĴ": 3270,
      "åįıè®®": 3271,
      "çļĦæĸ¹å¼ı": 3272,
      "çļĦä¸į": 3273,
      "æĻĵ": 3274,
      "çļĦäº§åĵģ": 3275,
      "æľ¬ç§ĳ": 3276,
      "åį±éĻ©": 3277,
      "ä¼ı": 3278,
      "å¹³æĸ¹ç±³": 3279,
      "è¹": 3280,
      "æĭĶ": 3281,
      "æ¨ª": 3282,
      "å¸ĥå±Ģ": 3283,
      "ä¹łè¿ĳå¹³æĢ»ä¹¦è®°": 3284,
      "éĢļçŁ¥": 3285,
      "åı¬å¼Ģ": 3286,
      "è¿Ķ": 3287,
      "åĬłå¤§": 3288,
      "èĩªæ²»": 3289,
      "é¡ºåĪ©": 3290,
      "åĿĽ": 3291,
      "é©¶": 3292,
      "çļĦåľ°æĸ¹": 3293,
      "åĲ«éĩı": 3294,
      "ä¹¡æĿĳ": 3295,
      "èµı": 3296,
      "æ¯Ķä¾ĭ": 3297,
      "é©±": 3298,
      "å¯¿åĳ½": 3299,
      "è½¦è¾Ĩ": 3300,
      "å¤ļå¹´": 3301,
      "çį": 3302,
      "èįĲ": 3303,
      "æ¸ł": 3304,
      "åĪ«äºº": 3305,
      "è£ħå¤ĩ": 3306,
      "åŀĥ": 3307,
      "åľ¾": 3308,
      "å®ŀéªĮå®¤": 3309,
      "éº¦": 3310,
      "å±ķçİ°": 3311,
      "åŀĥåľ¾": 3312,
      "æī£": 3313,
      "èĻİ": 3314,
      "æĽ´æĺ¯": 3315,
      "è¯¦ç»Ĩ": 3316,
      "åŃ¦ä¼ļ": 3317,
      "é¢ľèī²": 3318,
      "å¿½": 3319,
      "åĪĩå®ŀ": 3320,
      "æĸ°åŀĭ": 3321,
      "å°ĩ": 3322,
      "ãĢĤ(": 3323,
      "ç¡ķ": 3324,
      "çİ¯èĬĤ": 3325,
      "åĵ²": 3326,
      "æ³ķè§Ħ": 3327,
      "çĽĳæµĭ": 3328,
      "æĪĳåĢĳ": 3329,
      "ä¼¸": 3330,
      "åıĺå¾Ĺ": 3331,
      "çĶµåĬĽ": 3332,
      "ä¸ĢçĤ¹": 3333,
      "ä¸Ĭåįĩ": 3334,
      "åĹ": 3335,
      "ç§»åĬ¨": 3336,
      "ä¸Ģæĺ¯": 3337,
      "äººåľ¨": 3338,
      "èĶ¬": 3339,
      "èĳĹåĲį": 3340,
      "æ³¨éĩį": 3341,
      "çĵ¶": 3342,
      "åķĨåĬ¡": 3343,
      "æĽ´å¤ļçļĦ": 3344,
      "ä¼ĺè´¨": 3345,
      "è¿Ļä¹Ī": 3346,
      "31": 3347,
      "å©´åĦ¿": 3348,
      "æĸ¹éĿ¢çļĦ": 3349,
      "çº¢èī²": 3350,
      "æĶ¯æĴĳ": 3351,
      "å®¤åĨħ": 3352,
      "åı¯éĿł": 3353,
      "è½¬åŀĭ": 3354,
      "å¤ļæ¬¡": 3355,
      "ä¸»ç®¡": 3356,
      "å¤§å¤§": 3357,
      "æĶ¾åľ¨": 3358,
      "éĩįæĸ°": 3359,
      "æĬ¤çĲĨ": 3360,
      "ä¼¼ä¹İ": 3361,
      "æļĤ": 3362,
      "çĶľ": 3363,
      "èĪªç©º": 3364,
      "çķħ": 3365,
      "é£İæł¼": 3366,
      "ä¸ĭéĿ¢": 3367,
      "å¿Ĩ": 3368,
      "æĬĬæı¡": 3369,
      "ç«¹": 3370,
      "çļĦä¼ģä¸ļ": 3371,
      "èħĲèļĢ": 3372,
      "å¹´é¾Ħ": 3373,
      "éĺ²æİ§": 3374,
      "è¶³çĲĥ": 3375,
      "çĻ½æĸĳ": 3376,
      "çľł": 3377,
      "æ¼ı": 3378,
      "æľĢä½³": 3379,
      "çľŁçļĦ": 3380,
      "å·ŀå¸Ĥ": 3381,
      "æ²Ĵ": 3382,
      "æıĲä¾ĽäºĨ": 3383,
      "æĭ¼": 3384,
      "åĩī": 3385,
      "çĵ·": 3386,
      "åıĳçĹħ": 3387,
      "è·Ŀç¦»": 3388,
      "æĿľ": 3389,
      "èī°": 3390,
      "éĻĲåĪ¶": 3391,
      "ä¸ĵåĪ©": 3392,
      "æĶ¹éĢł": 3393,
      "çļĦçĶŁæ´»": 3394,
      "åĪ¶åĵģ": 3395,
      "çĻ»è®°": 3396,
      "å®¾": 3397,
      "åıįæĺł": 3398,
      "è¯ģä¹¦": 3399,
      "ä¸Ńåįİæ°ĳæĹı": 3400,
      "æŀĦæĪĲ": 3401,
      "èº«ä»½": 3402,
      "çĸ¼": 3403,
      "ä½ľåĩº": 3404,
      "è¿Ļæ¬¡": 3405,
      "éĩĮçļĦ": 3406,
      "æģĲ": 3407,
      "é«ĺçŃī": 3408,
      "éļĨ": 3409,
      "éģĵå¾·": 3410,
      "æ´ª": 3411,
      "çļĦåĲĮæĹ¶": 3412,
      "çĻ¾å¹´": 3413,
      "è®¤è¯ģ": 3414,
      "è£ħé¥°": 3415,
      "åĽĽä¸ª": 3416,
      "âĢĻ": 3417,
      "æ¶Īæģ¯": 3418,
      "åľ¨ä¸ŃåĽ½": 3419,
      "æĺ¯ä¸į": 3420,
      "åĩłä¹İ": 3421,
      "æĪĲéĥ½": 3422,
      "ä¸ĵä¸ļçļĦ": 3423,
      "åĿ¡": 3424,
      "æ¶Īéĺ²": 3425,
      "è¿ģ": 3426,
      "åĲĦçº§": 3427,
      "è¯Ħä¼°": 3428,
      "æľĪä»½": 3429,
      "æ¸ħæ¥ļ": 3430,
      "èŀº": 3431,
      "éĻ¢æł¡": 3432,
      "ä¹ĭå¤ĸ": 3433,
      "æĪĲåĪĨ": 3434,
      "ä¸Ĭè¿°": 3435,
      "èĳ¡": 3436,
      "å²©": 3437,
      "è¿ŀæİ¥": 3438,
      "çļĦå¥½": 3439,
      "ä¿Ħç½Ĺæĸ¯": 3440,
      "çļĦè¦ģæ±Ĥ": 3441,
      "æľĢå¥½": 3442,
      "å»ºæĪĲ": 3443,
      "æ²ŁéĢļ": 3444,
      "å§Ķä¼ļ": 3445,
      "è®°å½ķ": 3446,
      "é¢Ī": 3447,
      "çĦĬ": 3448,
      "æĪĲçĨŁ": 3449,
      "æī¹åĩĨ": 3450,
      "æģĭ": 3451,
      "en": 3452,
      "å°º": 3453,
      "ä¼ļæľī": 3454,
      "ä¼ļä¸Ĭ": 3455,
      "é©»": 3456,
      "åĵ¡": 3457,
      "ç¸": 3458,
      "è®©äºº": 3459,
      "äºķ": 3460,
      "åĨ³çŃĸ": 3461,
      "å¿ĥçļĦ": 3462,
      "æĻĭ": 3463,
      "è¯ķç®¡": 3464,
      "è¡¨è¾¾": 3465,
      "å¼ķé¢Ĩ": 3466,
      "ç¢İ": 3467,
      "ç¼ºä¹ı": 3468,
      "ä»ĸäºº": 3469,
      "æ¸ħæ´ģ": 3470,
      "çļĦä¸Ģç§į": 3471,
      "2000": 3472,
      "è¡°": 3473,
      "äºĮæĺ¯": 3474,
      "éĢĲæŃ¥": 3475,
      "ä¸»è¦ģæĺ¯": 3476,
      "çĶµåĬ¨": 3477,
      "åľ¨äºİ": 3478,
      "åĩºçīĪ": 3479,
      "ç¼´": 3480,
      "é¼»": 3481,
      "äº«åıĹ": 3482,
      "éļ¾ä»¥": 3483,
      "åĢ¾": 3484,
      "æĢģåº¦": 3485,
      "è²Į": 3486,
      "è°±": 3487,
      "æŃ»äº¡": 3488,
      "æĢ»ä½ĵ": 3489,
      "æ°Ľ": 3490,
      "45": 3491,
      "æĸĩç«ł": 3492,
      "ä¸įèī¯": 3493,
      "é©¬åħĭæĢĿ": 3494,
      "èĥĨ": 3495,
      "æĤ£èĢħçļĦ": 3496,
      "å®¿": 3497,
      "å§Ĳ": 3498,
      "åĽºå®ļ": 3499,
      "å¼ķåıĳ": 3500,
      "éĥ½ä¸į": 3501,
      "âĢĺ": 3502,
      "åĨĴ": 3503,
      "èµĸ": 3504,
      "çľģçº§": 3505,
      "åľ°äº§": 3506,
      "ä¸ĢæĹ¦": 3507,
      "çī©çļĦ": 3508,
      "çĭĹ": 3509,
      "å¤§åĪ©": 3510,
      "åĲĦä¸ª": 3511,
      "æĮĩæłĩ": 3512,
      "éĹ²": 3513,
      "ä½¿å¾Ĺ": 3514,
      "è¿Ŀæ³ķ": 3515,
      "çĤŃ": 3516,
      "äºİæĺ¯": 3517,
      "çī¹å¾ģ": 3518,
      "çĪ±æĥħ": 3519,
      "é«ĺçº§": 3520,
      "åİŁæĸĻ": 3521,
      "çŁ³æ²¹": 3522,
      "è·ĥ": 3523,
      "ä¹ĥ": 3524,
      "éĨĩ": 3525,
      "éģĩåĪ°": 3526,
      "36": 3527,
      "åħ¬å®ī": 3528,
      "å°¾": 3529,
      "è®¡ç®Ĺæľº": 3530,
      "å¾½": 3531,
      "èĪį": 3532,
      "å·¡": 3533,
      "è°Ĳ": 3534,
      "å¤©æ´¥": 3535,
      "ä¾Ŀæį®": 3536,
      "æĦŁåĪ°": 3537,
      "åı¯æĺ¯": 3538,
      "æĨ": 3539,
      "çļĦäºĭæĥħ": 3540,
      "çĸĨ": 3541,
      "æ°£": 3542,
      "ä¸Ģä¸ªäºº": 3543,
      "ä¸ŃåĽ½åħ±äº§åħļ": 3544,
      "åĬ²": 3545,
      "å¹²çĩ¥": 3546,
      "è´¢åĬ¡": 3547,
      "å¾Ĵ": 3548,
      "æĦıåĳ³": 3549,
      "åĪĽä½ľ": 3550,
      "è¾£": 3551,
      "åĬŀçĲĨ": 3552,
      "çĪ¸": 3553,
      "å¤§å¤ļæķ°": 3554,
      "åĪĨæ³Į": 3555,
      "åħ¬å¸ĥ": 3556,
      "è£ħç½®": 3557,
      "æķĪçĽĬ": 3558,
      "çļĦåİŁåĽł": 3559,
      "æ¡Īä»¶": 3560,
      "åĳ¼åĲ¸": 3561,
      "èµ¶": 3562,
      "åŃĲå®«": 3563,
      "å¹´ä»£": 3564,
      "æ¶ĤæĸĻ": 3565,
      "äººæ°ĳæĶ¿åºľ": 3566,
      "åįģä¹Ŀ": 3567,
      "åĪ©æ¶¦": 3568,
      "çĭ¬çī¹": 3569,
      "åĪĬ": 3570,
      "æ»´": 3571,
      "ç¡ħ": 3572,
      "é»ŀ": 3573,
      "å¨±ä¹Ĳ": 3574,
      "ãĢĭãĢĤ": 3575,
      "å¤§éĥ¨åĪĨ": 3576,
      "èĲĦ": 3577,
      "åįģäºĮ": 3578,
      "åĲİæĿ¥": 3579,
      "åģļåĩº": 3580,
      "åĩłä¸ª": 3581,
      "åº¦çļĦ": 3582,
      "åĨľæ°ĳ": 3583,
      "çĹħäºº": 3584,
      "åĭĻ": 3585,
      "èĥĮæĻ¯": 3586,
      "æĦŁæĥħ": 3587,
      "æĬ±": 3588,
      "åħ±äº«": 3589,
      "æľŁçļĦ": 3590,
      "è®¾ç«ĭ": 3591,
      "åıĳçĶµ": 3592,
      "300": 3593,
      "è¡¨æĺİ": 3594,
      "æµģç¨ĭ": 3595,
      "åĵģç§į": 3596,
      "åľºæīĢ": 3597,
      "ä¹Łå°±æĺ¯": 3598,
      "æ¸ħæ´Ĺ": 3599,
      "è¿Ľåı£": 3600,
      "åł´": 3601,
      "åºĶæĢ¥": 3602,
      "å°½ç®¡": 3603,
      "åĲ¯åĬ¨": 3604,
      "çłĤ": 3605,
      "åĽ½æľī": 3606,
      "è¯±": 3607,
      "å¾Īå¤ļäºº": 3608,
      "å¯¹å¤ĸ": 3609,
      "æ¼Ĩ": 3610,
      "æ¹ĸåįĹ": 3611,
      "ä¸ĸçķĮæĿ¯": 3612,
      "ä»ĵ": 3613,
      "åĲĪæł¼": 3614,
      "ä¸ĩäºº": 3615,
      "éĵ¸": 3616,
      "æīĢè°ĵ": 3617,
      "ç»ĺ": 3618,
      "èĤĥ": 3619,
      "ä¸Ģå®¶": 3620,
      "åĨ³èµĽ": 3621,
      "åĲĮæł·": 3622,
      "æĺ¾èĳĹ": 3623,
      "ä¸Ģæµģ": 3624,
      "åĬĽåº¦": 3625,
      "çłĸ": 3626,
      "ä¼¤å®³": 3627,
      "åıĳè¡¨": 3628,
      "æłı": 3629,
      "èĳ¡èĲĦ": 3630,
      "åŃ¦çĶŁçļĦ": 3631,
      "å°½éĩı": 3632,
      "è§Ĥå¯Ł": 3633,
      "åįĵ": 3634,
      "å°ıç»Ħ": 3635,
      "çĻ¾åĪĨ": 3636,
      "åĽĬ": 3637,
      "è¦ģæ³¨æĦı": 3638,
      "è¯ģåĪ¸": 3639,
      "æİ¨èįĲ": 3640,
      "éĶ»": 3641,
      "éĤĢ": 3642,
      "åģ¶": 3643,
      "æīĢåľ¨": 3644,
      "åħħæ»¡": 3645,
      "ç®¡éģĵ": 3646,
      "2014": 3647,
      "å¿§": 3648,
      "å¥¹çļĦ": 3649,
      "éĢĤå½ĵ": 3650,
      "æĶ¯éĥ¨": 3651,
      "ä¿¡å¿ĥ": 3652,
      "å¿ĹæĦ¿": 3653,
      "è½¬åĮĸ": 3654,
      "æĸ°æĬĢæľ¯": 3655,
      "çļĦæ°´": 3656,
      "çľŁå®ŀ": 3657,
      "å¿Ļ": 3658,
      "åħ«åŃĹ": 3659,
      "åŁ¹èĤ²": 3660,
      "éħ¯": 3661,
      "è³ĩ": 3662,
      "çļĦæĸ¹æ³ķ": 3663,
      "çļĦä¸Ģä¸ª": 3664,
      "è§Ĵèī²": 3665,
      "ä»ªåĻ¨": 3666,
      "åĬŀåħ¬å®¤": 3667,
      "ä»£çĲĨ": 3668,
      "çĽ¾": 3669,
      "èĥ¸": 3670,
      "éĢĨ": 3671,
      "åĴĮåĽ½": 3672,
      "å¯¹æĸ¹": 3673,
      "æįŁå¤±": 3674,
      "è®ĵ": 3675,
      "ä¸Ģè·¯": 3676,
      "è°ĥèĬĤ": 3677,
      "å°ĸ": 3678,
      "å¹³è¡¡": 3679,
      "å£¤": 3680,
      "èģĮè´£": 3681,
      "çĽ¸åĲĮ": 3682,
      "é«ĺæ¸©": 3683,
      "æ³Ħ": 3684,
      "å½¢åĬ¿": 3685,
      "æİĴæĶ¾": 3686,
      "æĲº": 3687,
      "çĥ¦": 3688,
      "èĶ¬èıľ": 3689,
      "èħ¾": 3690,
      "å¾Īå¤§çļĦ": 3691,
      "æķĮ": 3692,
      "å®Įæķ´": 3693,
      "ä¿¡çĶ¨": 3694,
      "æł¡åĽŃ": 3695,
      "éĽĨä½ĵ": 3696,
      "ç¢±": 3697,
      "æĽ´å¥½çļĦ": 3698,
      "ç»´ä¿®": 3699,
      "å±Ĥæ¬¡": 3700,
      "å¦Ĥæŀľä½ł": 3701,
      "åŃ¦ä½į": 3702,
      "è¢ĭ": 3703,
      "æµĭéĩı": 3704,
      "ä»¿": 3705,
      "?âĢĿ": 3706,
      "æĵ¦": 3707,
      "æ¸Ĺ": 3708,
      "çļĦæĬĢæľ¯": 3709,
      "æŃ£æĺ¯": 3710,
      "è¨Ń": 3711,
      "ä½©": 3712,
      "ç¡«": 3713,
      "éĻķ": 3714,
      "é¦ĸæ¬¡": 3715,
      "åĿļåĨ³": 3716,
      "æĸĩåŃ¦": 3717,
      "èĩ´åĬĽ": 3718,
      "æĸ°åĨł": 3719,
      "å°±èĥ½": 3720,
      "æıĲåĪ°": 3721,
      "æ´»æĢ§": 3722,
      "åĬŀåŃ¦": 3723,
      "å¸¦çĿĢ": 3724,
      "æī°": 3725,
      "æłĩå¿Ĺ": 3726,
      "è¡¥åħħ": 3727,
      "èĥľåĪ©": 3728,
      "æ°Ķä½ĵ": 3729,
      "ä¸īå¹´": 3730,
      "å®ħ": 3731,
      "éħįå¥Ĺ": 3732,
      "èĿ": 3733,
      "äºĨä¸Ģä¸ª": 3734,
      "åıĳä½ľ": 3735,
      "è·Į": 3736,
      "æ¢¦è§ģ": 3737,
      "ä½łä»¬": 3738,
      "è§Ħå¾ĭ": 3739,
      "ä»Ļ": 3740,
      "æĹ¶çļĦ": 3741,
      "åľ¨ä¸Ģèµ·": 3742,
      "æ¸łéģĵ": 3743,
      "å¾Īå¥½çļĦ": 3744,
      "éĶģ": 3745,
      "å¿Į": 3746,
      "æĻ¨": 3747,
      "åĶ¯ä¸Ģ": 3748,
      "å½¼": 3749,
      "ä½ĵåĪ¶": 3750,
      "èį¯åĵģ": 3751,
      "çļĦçĥŃ": 3752,
      "æ±Ĺ": 3753,
      "åįĢ": 3754,
      "èı²": 3755,
      "ç¥¥": 3756,
      "æĢĿç»´": 3757,
      "åį³åı¯": 3758,
      "çŃīå¥ĸ": 3759,
      "çīµ": 3760,
      "è¯ĬæĸŃ": 3761,
      "ç¾İä¸½": 3762,
      "æĦŁåıĹ": 3763,
      "éĥŃ": 3764,
      "è®¨è®º": 3765,
      "çļĦåīį": 3766,
      "æĻ®éģį": 3767,
      "ä¹Łèĥ½": 3768,
      "å®ĺæĸ¹": 3769,
      "èµ·åĪ°": 3770,
      "åħļä¸Ńå¤®": 3771,
      "è´·æ¬¾": 3772,
      "æĢ»æĺ¯": 3773,
      "åħ¬åĽŃ": 3774,
      "å®Ŀå®Ŀ": 3775,
      "å´ĩ": 3776,
      "ä¸ĵéĹ¨": 3777,
      "æ»ĭ": 3778,
      "åľ¨çº¿": 3779,
      "æĤ²": 3780,
      "åĬŁæķĪ": 3781,
      "éĥģ": 3782,
      "åįĹäº¬": 3783,
      "æª": 3784,
      "å¯¹è±¡": 3785,
      "åĪ°åºķ": 3786,
      "å¾ŀ": 3787,
      "éĵº": 3788,
      "å¿«ä¹Ĳ": 3789,
      "åĲĪéĩĳ": 3790,
      "ä½ľä¸ļ": 3791,
      "ä¸¤ç§į": 3792,
      "éĤ®": 3793,
      "åħ¨çľģ": 3794,
      "æ»¡æĦı": 3795,
      "åĩĢåĮĸ": 3796,
      "æľĢè¿ĳ": 3797,
      "çłĶç©¶çĶŁ": 3798,
      "å¯¸": 3799,
      "æ¨£": 3800,
      "çºł": 3801,
      "ä¼ļè®¡": 3802,
      "ä¸Ģèĩ´": 3803,
      "äº§æĿĥ": 3804,
      "åĳĪçİ°": 3805,
      "ä¾ĿçĦ¶": 3806,
      "éĩįçļĦ": 3807,
      "æĭĴç»Ŀ": 3808,
      "æĤŁ": 3809,
      "æĭħä»»": 3810,
      "çĸı": 3811,
      "çļĦæĥħåĨµä¸ĭ": 3812,
      "æ²³åĮĹ": 3813,
      "ä¼Ĺå¤ļ": 3814,
      "éĶ¦": 3815,
      "çļĨ": 3816,
      "ç²Ĺ": 3817,
      "éĥ½åľ¨": 3818,
      "éĢĥ": 3819,
      "ç§Ĵ": 3820,
      "é¢Ħè®¡": 3821,
      "éĵ¶å±ĳ": 3822,
      "è¯ļä¿¡": 3823,
      "çī©çĲĨ": 3824,
      "ç¾İçļĦ": 3825,
      "è³ª": 3826,
      "å¦Īå¦Ī": 3827,
      "éĺĢ": 3828,
      "ä¸¦": 3829,
      "çĤ¸": 3830,
      "åľ¨è¿Ļ": 3831,
      "åºĶå¯¹": 3832,
      "æĮĸ": 3833,
      "è¾½": 3834,
      "åħ»èĢģ": 3835,
      "åĪ¶éĢłä¸ļ": 3836,
      "å®ļä½į": 3837,
      "äººå¤§": 3838,
      "æĪªèĩ³": 3839,
      "éĵ¶å±ĳçĹħ": 3840,
      "èĤª": 3841,
      "æ©¡": 3842,
      "é«ĺè´¨éĩıåıĳå±ķ": 3843,
      "åĩ¯": 3844,
      "ä¿Ŀåģ¥": 3845,
      "èĦĤèĤª": 3846,
      "å®¶çļĦ": 3847,
      "åĪĽå»º": 3848,
      "è¯´éģĵ": 3849,
      "æĲľ": 3850,
      "éļľç¢į": 3851,
      "åī²": 3852,
      "ä¸ĢåĲį": 3853,
      "å°±è¦ģ": 3854,
      "æ£ĢéªĮ": 3855,
      "éĥ¨ä½į": 3856,
      "èĩ³ä»Ĭ": 3857,
      "åŃ¦åİĨ": 3858,
      "æĸ°èĥ½æºĲ": 3859,
      "å¸ĤåľºçļĦ": 3860,
      "éĢĤçĶ¨äºİ": 3861,
      "éĹ®é¢ĺçļĦ": 3862,
      "å¹¶ä¸įæĺ¯": 3863,
      "ç¬¬äºĶ": 3864,
      "éĺĶ": 3865,
      "å®ļæľŁ": 3866,
      "è¿ĺåı¯ä»¥": 3867,
      "ä¸Ĭä¸ĭ": 3868,
      "å¼ĺ": 3869,
      "æľīå¾Īå¤ļ": 3870,
      "äº©": 3871,
      "çģĮ": 3872,
      "å¾Īéļ¾": 3873,
      "æĥħåĨµä¸ĭ": 3874,
      "æ¬£": 3875,
      "äºĭé¡¹": 3876,
      "1000": 3877,
      "æ°¸è¿ľ": 3878,
      "æ²Ī": 3879,
      "èĥĢ": 3880,
      "ä¹ĭä¸Ń": 3881,
      "å¥³äºº": 3882,
      "åİŁçĲĨ": 3883,
      "çĶµè¯Ŀ": 3884,
      "è¯ĳ": 3885,
      "ä¸ĢæĿ¡": 3886,
      "èī¾": 3887,
      "æī«": 3888,
      "åħ´è¶£": 3889,
      "è¾ŀ": 3890,
      "ä»¥åīį": 3891,
      "æ·»åĬł": 3892,
      "å±¥è¡Į": 3893,
      "æľīåĪ©äºİ": 3894,
      "çł´åĿı": 3895,
      "æľīåı¯èĥ½": 3896,
      "åĪĨå¸ĥ": 3897,
      "å½¹": 3898,
      "è§£éĩĬ": 3899,
      "è¸ı": 3900,
      "æ¹ĸåĮĹ": 3901,
      "çĿĽ": 3902,
      "æ°¯": 3903,
      "è¡Įä¸ļçļĦ": 3904,
      "éĴĻ": 3905,
      "å¹¼åĦ¿": 3906,
      "é»ĳèī²": 3907,
      "åĨ»": 3908,
      "ãĢĭãĢĬ": 3909,
      "çºµ": 3910,
      "ç¼Ŀ": 3911,
      "ä¸Ļ": 3912,
      "çĶ·æĢ§": 3913,
      "äººçī©": 3914,
      "ä¸įç®¡": 3915,
      "ä¼ĺçĤ¹": 3916,
      "äº¿ç¾İåħĥ": 3917,
      "åķĬ": 3918,
      "è¿Ī": 3919,
      "ä¼łæī¿": 3920,
      "èµĭ": 3921,
      "ä¸ĵé¡¹": 3922,
      "çļĦåİĨåı²": 3923,
      "ä¸Ģåı¥": 3924,
      "éŁ©åĽ½": 3925,
      "èĻķ": 3926,
      "ä¹Łè¦ģ": 3927,
      "é¬": 3928,
      "çĪ¶äº²": 3929,
      "Ġ(": 3930,
      "äººæ°ĳå¸ģ": 3931,
      "åŁĥ": 3932,
      "æĥľ": 3933,
      "æĻ¯åĮº": 3934,
      "åºĶçĶ¨äºİ": 3935,
      "å°ıçļĦ": 3936,
      "ãĢĤãĢĬ": 3937,
      "çħ®": 3938,
      "ç¦»å¼Ģ": 3939,
      "å¯º": 3940,
      "éĿĴæĺ¥": 3941,
      "éļıåĲİ": 3942,
      "èĬĤçĽ®": 3943,
      "é½¿": 3944,
      "ä¸ĬäºĨ": 3945,
      "å°±åĥı": 3946,
      "è¡Ģæ¶²": 3947,
      "èĩªè§ī": 3948,
      "èŀįèµĦ": 3949,
      "å¼Ĥå¸¸": 3950,
      "38": 3951,
      "å¤±åİ»": 3952,
      "éĤ¦": 3953,
      "ä¿¡æģ¯åĮĸ": 3954,
      "èħ°": 3955,
      "æĿŃ": 3956,
      "çĻ½çĻľé£İçļĦ": 3957,
      "åĪĨç±»": 3958,
      "æĦıæĢĿ": 3959,
      "åĴĮè°Ĳ": 3960,
      "åįģå¹´": 3961,
      "2013": 3962,
      "åĲĬ": 3963,
      "åĬłä¸Ĭ": 3964,
      "ç³»ç»ŁçļĦ": 3965,
      "å·¥åķĨ": 3966,
      "è§ĦåĪĻ": 3967,
      "åľ¨æŃ¤": 3968,
      "äºĳåįĹ": 3969,
      "ä¸ŃåĽ½çļĦ": 3970,
      "åģ¥åħ¨": 3971,
      "å°Ŀ": 3972,
      "èħ¿": 3973,
      "ç§įæ¤į": 3974,
      "è½¬åıĺ": 3975,
      "èĥ½éĩı": 3976,
      "æĹ¶åĪ»": 3977,
      "å®ĺç½ĳ": 3978,
      "æľºåľº": 3979,
      "æĪĺäºī": 3980,
      "éĺ³åħī": 3981,
      "æĺ¯çĶ±": 3982,
      "æĹģ": 3983,
      "è¾ĸ": 3984,
      "æŀĿ": 3985,
      "å¸¦é¢Ĩ": 3986,
      "%;": 3987,
      "åĢ¡": 3988,
      "èĢģäºº": 3989,
      "èĢĥæł¸": 3990,
      "åĴĮç¤¾ä¼ļ": 3991,
      "éĺ²æ²»": 3992,
      "æµĨ": 3993,
      "åľŁå£¤": 3994,
      "ä¸įå¥½": 3995,
      "å¥ı": 3996,
      "åıĳèĤ²": 3997,
      "è¡ĮçļĦ": 3998,
      "å·¥åİĤ": 3999,
      "å¾Īå¥½": 4000,
      "å·¥èµĦ": 4001,
      "æĦıåĳ³çĿĢ": 4002,
      "åĽ½å®¶çº§": 4003,
      "æĭĨ": 4004,
      "å¤Ħç½ļ": 4005,
      "åĽŀåºĶ": 4006,
      "èĩŃ": 4007,
      "é³": 4008,
      "ç´¯è®¡": 4009,
      "ä¸Ńåħ±": 4010,
      "åħħåĪĨåıĳæĮ¥": 4011,
      "ä½ıæĪ¿": 4012,
      "ä¸įåĨį": 4013,
      "æ³ķåĽ½": 4014,
      "éĢļä¿¡": 4015,
      "åĳ¨æľŁ": 4016,
      "æ¶ĪåĮĸ": 4017,
      "æ·±åº¦": 4018,
      "é«ĺç«¯": 4019,
      "åĽŀæĶ¶": 4020,
      "ä¼ĺèī¯": 4021,
      "è¾ĥå¤§": 4022,
      "æ··åĲĪ": 4023,
      "çİ°æľī": 4024,
      "æĲ¬": 4025,
      "åħ¨ä¼ļ": 4026,
      "åįĬå¹´": 4027,
      "åľºæ¯ĶèµĽ": 4028,
      "æ¿Ģç´ł": 4029,
      "æĭĽçĶŁ": 4030,
      "åĮĢ": 4031,
      "æ¯įäº²": 4032,
      "æĽ´ä¸º": 4033,
      "åħ±åĴĮåĽ½": 4034,
      "ç«ĭåį³": 4035,
      "33": 4036,
      "éĶĮ": 4037,
      "åĽ½åĨħå¤ĸ": 4038,
      "å¼ķè¿Ľ": 4039,
      "åħįè´¹": 4040,
      "è¾ĥä¸º": 4041,
      "è¿ĺä¼ļ": 4042,
      "çĿĢåĬĽ": 4043,
      "å¹³æĹ¶": 4044,
      "mm": 4045,
      "å¤©ä¸ĭ": 4046,
      "åį°åĪ·": 4047,
      "èĩ´åĬĽäºİ": 4048,
      "æľĢå¥½çļĦ": 4049,
      "è®¤åı¯": 4050,
      "æıĴ": 4051,
      "ç¢ĳ": 4052,
      "çĻ½èī²": 4053,
      "éĩĩè´Ń": 4054,
      "éĥ¨ä»¶": 4055,
      "å®ļçļĦ": 4056,
      "!âĢĿ": 4057,
      "æłĳç«ĭ": 4058,
      "èĸª": 4059,
      "å°Ĩåľ¨": 4060,
      "ä¸ĩåĲ¨": 4061,
      "åŁºäºİ": 4062,
      "çļĦç²¾ç¥ŀ": 4063,
      "æĢª": 4064,
      "æµ·å¤ĸ": 4065,
      "è®¾å¤ĩçļĦ": 4066,
      "èĩªä¿¡": 4067,
      "çĽĨ": 4068,
      "æĭħå½ĵ": 4069,
      "åħ©": 4070,
      "è¾°": 4071,
      "æ¼Ķåĳĺ": 4072,
      "æĺĨ": 4073,
      "é©¬åħĭæĢĿä¸»ä¹ī": 4074,
      "é¸Ł": 4075,
      "è¨Ī": 4076,
      "éº¼": 4077,
      "è°¨": 4078,
      "çŁĽ": 4079,
      "æĺ¯ä¸ŃåĽ½": 4080,
      "å¿į": 4081,
      "å·¥ä½ľäººåĳĺ": 4082,
      "çªģçĦ¶": 4083,
      "åĮ»èį¯": 4084,
      "åĳ¨åĽ´": 4085,
      "ç¾İæľ¯": 4086,
      "èĭ±è¯Ń": 4087,
      "åħ¨å¸Ĥ": 4088,
      "å®īåħ¨çĶŁäº§": 4089,
      "çľ¼çĿĽ": 4090,
      "éĽ¾": 4091,
      "æĭĵå±ķ": 4092,
      "çº½": 4093,
      "å¤©çļĦ": 4094,
      "éĥ½è¦ģ": 4095,
      "å§ľ": 4096,
      "æįŁå®³": 4097,
      "è®ºæĸĩ": 4098,
      "ç¦»åŃĲ": 4099,
      "çºº": 4100,
      "éªĹ": 4101,
      "åįģåĽĽ": 4102,
      "èĢĮä¸į": 4103,
      "åĽ½å¤ĸ": 4104,
      "ç¾İå¥½": 4105,
      "åĻ¨çļĦ": 4106,
      "2012": 4107,
      "èį£èªī": 4108,
      "ä¿¡åı·": 4109,
      "èĩªæ²»åĮº": 4110,
      "æ¯ķä¸ļçĶŁ": 4111,
      "æĿĥåĪ©": 4112,
      "éĿ¢åĲĳ": 4113,
      "ç¡ķå£«": 4114,
      "èĬ¯": 4115,
      "åįģåħ«": 4116,
      "å¤įåĲĪ": 4117,
      "æķ¸": 4118,
      "æ¢¯": 4119,
      "èĩ³å°ĳ": 4120,
      "åĪĿå¿ĥ": 4121,
      "å¦Ļ": 4122,
      "å§»": 4123,
      "ä¹Łåľ¨": 4124,
      "è¡Ģåİĭ": 4125,
      "åĬłçĥŃ": 4126,
      "å½°": 4127,
      "åŁºåĽł": 4128,
      "è¾Ī": 4129,
      "å«Į": 4130,
      "äºļæ´²": 4131,
      "çĮ«": 4132,
      "åĪ¤æĸŃ": 4133,
      "å®£å¸ĥ": 4134,
      "æĥĳ": 4135,
      "é¢ĨåŁŁçļĦ": 4136,
      "æµģåĬ¨": 4137,
      "åħģ": 4138,
      "é¡µ": 4139,
      "ç§ī": 4140,
      "åħ¨åĬĽ": 4141,
      "æİĺ": 4142,
      "æł¼å±Ģ": 4143,
      "é¥±": 4144,
      "çµĲ": 4145,
      "éħįç½®": 4146,
      "å²ģçļĦ": 4147,
      "å®¶åħ·": 4148,
      "éķ¿æĹ¶éĹ´": 4149,
      "èĲ¥ä¸ļ": 4150,
      "ä¸įçŁ¥éģĵ": 4151,
      "çĤĴ": 4152,
      "å¤įåħ´": 4153,
      "å½ĵä¸Ń": 4154,
      "æĹ©æľŁ": 4155,
      "åŃ©åŃĲçļĦ": 4156,
      "èĴĤ": 4157,
      "å¾Īå®¹æĺĵ": 4158,
      "åıĤèĢĥ": 4159,
      "æĸĩåŃĹ": 4160,
      "ç»ıæµİåıĳå±ķ": 4161,
      "å®¡æŁ¥": 4162,
      "æľŁå¾ħ": 4163,
      "åı¯ä»¥åľ¨": 4164,
      "åħļå»º": 4165,
      "ç¬¬ä¸Ģæ¬¡": 4166,
      "çļĦæľįåĬ¡": 4167,
      "åŃ¤": 4168,
      "å¥ĳ": 4169,
      "æľºéģĩ": 4170,
      "ä¸Ģæ®µ": 4171,
      "èĤ¿çĺ¤": 4172,
      "ä¸Ńèį¯": 4173,
      "åĨ²åĩ»": 4174,
      "åıĸå¾ĹäºĨ": 4175,
      "æ¦Ĥå¿µ": 4176,
      "ä¸įéĶĻ": 4177,
      "è¯ķç®¡å©´åĦ¿": 4178,
      "ç¨Ģ": 4179,
      "ä½ĵä¼ļ": 4180,
      "æĤ¬": 4181,
      "åĲĲ": 4182,
      "ç»ıåħ¸": 4183,
      "ç»ŁçŃ¹": 4184,
      "åĩºå¸Ń": 4185,
      "æ¿Ģåħī": 4186,
      "è¯´çļĦ": 4187,
      "åī©": 4188,
      "åı¸æ³ķ": 4189,
      "è§£åĨ³æĸ¹æ¡Ī": 4190,
      "37": 4191,
      "éĻµ": 4192,
      "çĸ²": 4193,
      "åħ¸åŀĭ": 4194,
      "çĥĪçļĦ": 4195,
      "çŁĽçĽ¾": 4196,
      "è»Ĭ": 4197,
      "æıĲåīį": 4198,
      "ä¹īåĬ¡": 4199,
      "è´¯å½»èĲ½å®ŀ": 4200,
      "æĹ©å·²": 4201,
      "å¾Īå¿«": 4202,
      "éĻķè¥¿": 4203,
      "æĥħæĦŁ": 4204,
      "æĢ»ç»ıçĲĨ": 4205,
      "æĪĴ": 4206,
      "èĩªåĬ¨åĮĸ": 4207,
      "èľľ": 4208,
      "å·¥ä½ľä¸Ń": 4209,
      "æĪ¿åľ°äº§": 4210,
      "æ¡Ĥ": 4211,
      "æĥ³åĪ°": 4212,
      "çī§": 4213,
      "ä½ľèĢħ": 4214,
      "éĺħè¯»": 4215,
      "ä»¥ä¸º": 4216,
      "æ°´æŀľ": 4217,
      "ç¡®å®ŀ": 4218,
      "æľīåĵªäºĽ": 4219,
      "æįĲ": 4220,
      "æħ¢æĢ§": 4221,
      "æĹ¥èµ·": 4222,
      "è¡¨æ¼Ķ": 4223,
      "é©¾é©¶": 4224,
      "æŃ£è§Ħ": 4225,
      "ä»°": 4226,
      "æķ´åĲĪ": 4227,
      "æµ·æ´ĭ": 4228,
      "åħ¶æ¬¡": 4229,
      "è®¸åı¯": 4230,
      "åŁºç¡Ģè®¾æĸ½": 4231,
      "ä»ªå¼ı": 4232,
      "å¹¶æ²¡æľī": 4233,
      "èµĶ": 4234,
      "è¤": 4235,
      "æľīä¸Ģä¸ª": 4236,
      "æľīæķĪçļĦ": 4237,
      "æĲŀ": 4238,
      "è®©æĪĳä»¬": 4239,
      "æĬĢæľ¯çļĦ": 4240,
      "éĻª": 4241,
      "åĬłçĽŁ": 4242,
      "ä½İäºİ": 4243,
      "æĿ¡ä¾ĭ": 4244,
      "å¤©æ°Ķ": 4245,
      "ãĢĭ(": 4246,
      "åłĨ": 4247,
      "æıĲéĨĴ": 4248,
      "çĶ·äºº": 4249,
      "ä¸ĸçķĮä¸Ĭ": 4250,
      "æµģéĩı": 4251,
      "èĳ£äºĭéķ¿": 4252,
      "å¯ĨåĪĩ": 4253,
      "ä¸Ģä»£": 4254,
      "34": 4255,
      "åĲįåŃĹ": 4256,
      "éĤ£ä¸ª": 4257,
      "çºªå¿µ": 4258,
      "æĽ¹": 4259,
      "éĶĪéĴ¢": 4260,
      "åħ³å¿ĥ": 4261,
      "æĪĲçļĦ": 4262,
      "éĻ¢éķ¿": 4263,
      "åĽŃåĮº": 4264,
      "å¾ĹåĪ°äºĨ": 4265,
      "å®īå¾½": 4266,
      "æ²Ĵæľī": 4267,
      "èĩ£": 4268,
      "åįıåĲĮ": 4269,
      "éĨ«": 4270,
      "æĦŁè°¢": 4271,
      "æħĪ": 4272,
      "ä»ĸåľ¨": 4273,
      "è®Ĭ": 4274,
      "åŁİä¹¡": 4275,
      "éĮ": 4276,
      "çĩķ": 4277,
      "èº«ä¸Ĭ": 4278,
      "äº§ä¸ļéĵ¾": 4279,
      "æ°ĶåĢĻ": 4280,
      "èĦ¾": 4281,
      "æ°´çļĦ": 4282,
      "æµ¸": 4283,
      "åħ¶å®ĥ": 4284,
      "åįļçī©": 4285,
      "åħ¬çĽĬ": 4286,
      "è§Ħå®ļçļĦ": 4287,
      "åĲĪéĢĤ": 4288,
      "åĩłå¹´": 4289,
      "----": 4290,
      "å¦Ĥä¸ĭ": 4291,
      "éĶ»çĤ¼": 4292,
      "æĶ¶çĽĬ": 4293,
      "çļĦä¸»": 4294,
      "ç»´æĮģ": 4295,
      "åĩ¤": 4296,
      "éĥ½èĥ½": 4297,
      "èī²å½©": 4298,
      "ï¿": 4299,
      "æµħ": 4300,
      "å©ļå§»": 4301,
      "æĿ¥æºĲ": 4302,
      "ä¼Ļä¼´": 4303,
      "æ·ĭ": 4304,
      "åŁİéķĩ": 4305,
      "é¢¨": 4306,
      "æĺ¯æľī": 4307,
      "çĸ¼çĹĽ": 4308,
      "32": 4309,
      "åįģä¸ī": 4310,
      "PP": 4311,
      "å·®å¼Ĥ": 4312,
      "åĺ´": 4313,
      "é»İ": 4314,
      "æ·Ģ": 4315,
      "æĪ¿å±ĭ": 4316,
      "ç°": 4317,
      "å¤§æķ°æį®": 4318,
      "æľĢæĸ°": 4319,
      "å¸Ĥå§Ķ": 4320,
      "éŃĶ": 4321,
      "å°Ĩä¼ļ": 4322,
      "æ±ģ": 4323,
      "é¢ģ": 4324,
      "2010": 4325,
      "å¯Ħ": 4326,
      "çĶŁåŃĺ": 4327,
      "çłĶç©¶éĻ¢": 4328,
      "____": 4329,
      "ä¸Ģæī¹": 4330,
      "59": 4331,
      "ä¸ĭäºĨ": 4332,
      "æĪĳä»¬è¦ģ": 4333,
      "æºª": 4334,
      "æıĲåĩºäºĨ": 4335,
      "çļĦåŁºæľ¬": 4336,
      "æĶ¯åĩº": 4337,
      "åīĳ": 4338,
      "åľ¨ä¸į": 4339,
      "çº¿ä¸Ĭ": 4340,
      "çĽĪ": 4341,
      "æĬ¥åĲį": 4342,
      "åı¯è§ģ": 4343,
      "éķĢ": 4344,
      "48": 4345,
      "ç»ıæµİç¤¾ä¼ļ": 4346,
      "è´§å¸ģ": 4347,
      "æĿ¥åĪ°": 4348,
      "éģĭ": 4349,
      "çļĦçĶŁäº§": 4350,
      "ï¿½": 4351,
      "åĩºçİ°äºĨ": 4352,
      "ar": 4353,
      "ä¸Ĭæ¶¨": 4354,
      "çļĦéľĢæ±Ĥ": 4355,
      "åľ°ä¸ĭ": 4356,
      "æ°¢": 4357,
      "éķ¿çļĦ": 4358,
      "å¤ļåħĥ": 4359,
      "2011": 4360,
      "èµ¢å¾Ĺ": 4361,
      "å®ŀéĻħä¸Ĭ": 4362,
      "ç»ĦåĲĪ": 4363,
      "äººæķ°": 4364,
      "äºĮåįģå¤§": 4365,
      "ä½¿çĶ¨çļĦ": 4366,
      "æ¢¦æĥ³": 4367,
      "ä»Ķ": 4368,
      "åĤ¬": 4369,
      "ä¸īæĺ¯": 4370,
      "è¯ķçĤ¹": 4371,
      "æľĪç»ı": 4372,
      "èĢĥå¯Ł": 4373,
      "åıĳåĬ¨": 4374,
      "äº§éĩı": 4375,
      "åģľæŃ¢": 4376,
      "ç¦ıå»º": 4377,
      "ä½ľé£İ": 4378,
      "è´«åĽ°": 4379,
      "ç¨į": 4380,
      "ä¹ĭè·¯": 4381,
      "çī¹æĢ§": 4382,
      "åĲĮæ¯Ķå¢ŀéķ¿": 4383,
      "åľ°çļĦ": 4384,
      "å·¨å¤§": 4385,
      "æķĻèĤ²éĥ¨": 4386,
      "åĻª": 4387,
      "åĪ¥": 4388,
      "åĽ½çļĦ": 4389,
      "55": 4390,
      "ä¸Ģä½į": 4391,
      "å°ıåŃ¦": 4392,
      "èĢķ": 4393,
      "è£ħä¿®": 4394,
      "åīįçļĦ": 4395,
      "å¤ļæł·": 4396,
      "æĸ¹ä½į": 4397,
      "åħĦ": 4398,
      "åŁĭ": 4399,
      "èĩªè¡Į": 4400,
      "çĶŁæ´»çļĦ": 4401,
      "æ¸¸å®¢": 4402,
      "å¾¡": 4403,
      "åĽ½æ°ĳ": 4404,
      "åŃ£åº¦": 4405,
      "æĸ¤": 4406,
      "å¹¿è¥¿": 4407,
      "æīĢæľīçļĦ": 4408,
      "ç²¾å½©": 4409,
      "è¾ĥé«ĺ": 4410,
      "å¸ĪçĶŁ": 4411,
      "çķª": 4412,
      "å¸Ĥæ°ĳ": 4413,
      "åĮºåĪ«": 4414,
      "åı°æ¹¾": 4415,
      "æ»¨": 4416,
      "æŁĲäºĽ": 4417,
      "æĦ¿æĦı": 4418,
      "æ£®æŀĹ": 4419,
      "å¹¶åľ¨": 4420,
      "è®¤å®ļ": 4421,
      "éŃĤ": 4422,
      "è¬": 4423,
      "æĳĩ": 4424,
      "å®¶äºº": 4425,
      "åĽŀåĪ°": 4426,
      "éŃı": 4427,
      "æ£ī": 4428,
      "ç¨¿": 4429,
      "å¸¦åĬ¨": 4430,
      "æ²ĥ": 4431,
      "æĮĩæķ°": 4432,
      "åĲ¹": 4433,
      "æī§æ³ķ": 4434,
      "åº·å¤į": 4435,
      "åĴĮåħ¶ä»ĸ": 4436,
      "åĩĮ": 4437,
      "ä¸Ģå¤©": 4438,
      "çĸ«èĭĹ": 4439,
      "ä¸Ģå¸¦": 4440,
      "æĳ¸": 4441,
      "å¤§å¹ħ": 4442,
      "éģ¸": 4443,
      "ç±»ä¼¼": 4444,
      "èĲ¥éĢł": 4445,
      "å¯¹æŃ¤": 4446,
      "å°Ĭéĩį": 4447,
      "å£°éŁ³": 4448,
      "åĲĪæ³ķ": 4449,
      "éĺ²æĬ¤": 4450,
      "å¥Ķ": 4451,
      "çĲ´": 4452,
      "ä¸įéĶĪéĴ¢": 4453,
      "æ·ĺ": 4454,
      "èĢĥçĶŁ": 4455,
      "æĸĹäºī": 4456,
      "å¦¹": 4457,
      "åīįè¿Ľ": 4458,
      "è¿Ł": 4459,
      "åĬ¨ä½ľ": 4460,
      "æīįæĺ¯": 4461,
      "æµ¦": 4462,
      "ç²¾åĩĨ": 4463,
      "èµ´": 4464,
      "å£³": 4465,
      "åĬłéĢŁ": 4466,
      "èĭ±éĽĦ": 4467,
      "æĢĢåŃķ": 4468,
      "æ¤Ĵ": 4469,
      "ç½©": 4470,
      "ç¾½": 4471,
      "è¥¿å®ī": 4472,
      "å¤§éĩıçļĦ": 4473,
      "å½¢æĪĲäºĨ": 4474,
      "çľģå§Ķ": 4475,
      "æĺ¯éĿŀå¸¸": 4476,
      "åı¯æĮģç»Ń": 4477,
      "ç¢°": 4478,
      "äººæ°ĳåħ±åĴĮåĽ½": 4479,
      "ç«ŀäºīåĬĽ": 4480,
      "èĵĦ": 4481,
      "åĬłéĩį": 4482,
      "éĶĻè¯¯": 4483,
      "å¯Ĩå°ģ": 4484,
      "è¿ĳæľŁ": 4485,
      "è´µå·ŀ": 4486,
      "æ··åĩĿ": 4487,
      "å¼·": 4488,
      "çĽĳæİ§": 4489,
      "39": 4490,
      "åĳ½è¿Ĳ": 4491,
      "æĶ»åĿļ": 4492,
      "åĴĮå¹³": 4493,
      "è¾©": 4494,
      "æ´»åĬĽ": 4495,
      "çĶ³æĬ¥": 4496,
      "æĮ¯åħ´": 4497,
      "æ³ķæ²»": 4498,
      "å¥¥è¿Ĳ": 4499,
      "èĬ³": 4500,
      "å¹»": 4501,
      "ç´§å¼ł": 4502,
      "çļĦä½¿çĶ¨": 4503,
      "æĿĥçĽĬ": 4504,
      "ä¸¥éĩįçļĦ": 4505,
      "å®ĹæĹ¨": 4506,
      "åĦ¿åŃĲ": 4507,
      "æĿ¥äºĨ": 4508,
      "åĽ½å®¶çļĦ": 4509,
      "çĸ«æĥħéĺ²æİ§": 4510,
      "æŁľ": 4511,
      "ç§ĳæĬĢåĪĽæĸ°": 4512,
      "éĩĮéĿ¢": 4513,
      "æĶ¹è¿Ľ": 4514,
      "åĴĮåıĳå±ķ": 4515,
      "å»·": 4516,
      "ä¸Ńåįİäººæ°ĳåħ±åĴĮåĽ½": 4517,
      "åħĨ": 4518,
      "èº«è¾¹": 4519,
      "åĩŃåĢŁ": 4520,
      "æĸ°çĸĨ": 4521,
      "æīĵå¼Ģ": 4522,
      "æĽ´æĸ°": 4523,
      "å»ºè®¾çļĦ": 4524,
      "ç©ºè°ĥ": 4525,
      "çĻ¾åĪĨçĤ¹": 4526,
      "çĹħä¾ĭ": 4527,
      "èŁ": 4528,
      "å¸«": 4529,
      "æ¡Į": 4530,
      "äººåĬĽ": 4531,
      "ä»£è°¢": 4532,
      "æĻ°": 4533,
      "75": 4534,
      "èģĮä¸ļæķĻèĤ²": 4535,
      "äººæīįåŁ¹åħ»": 4536,
      "éĿĴå°ĳå¹´": 4537,
      "ä¸Ģç³»åĪĹ": 4538,
      "æİ¨åĩº": 4539,
      "ä¸įçĶ¨": 4540,
      "ä¸Ńæľī": 4541,
      "è¿ĳæĹ¥": 4542,
      "ç§¯ç´¯": 4543,
      "è§Ĥå¿µ": 4544,
      "ç½ĳåıĭ": 4545,
      "è®ºåĿĽ": 4546,
      "èĤºçĤİ": 4547,
      "çĪ·": 4548,
      "é¢Ħç®Ĺ": 4549,
      "ç¼ĵè§£": 4550,
      "å¸¦æĿ¥çļĦ": 4551,
      "èİ·åıĸ": 4552,
      "å½¢æĢģ": 4553,
      "æĴŀ": 4554,
      "æ°ĽåĽ´": 4555,
      "åĬ©äºİ": 4556,
      "ä¼ĳæģ¯": 4557,
      "è¿ĩæ»¤": 4558,
      "éĦ": 4559,
      "åĬ£": 4560,
      "ä¸ĭåİ»": 4561,
      "æ¸¡": 4562,
      "äººä¸º": 4563,
      "åĲ¦åĪĻ": 4564,
      "ç»ĨèıĮ": 4565,
      "åį°åº¦": 4566,
      "å¾ĭå¸Ī": 4567,
      "ä¿Ĭ": 4568,
      "åĮħåĲ«": 4569,
      "çĶŁæĢģçİ¯å¢ĥ": 4570,
      "äººç¾¤": 4571,
      "ç®Ģç§°": 4572,
      "é©±åĬ¨": 4573,
      "ä¸ĭåįĪ": 4574,
      "å¯»æī¾": 4575,
      "çĭĤ": 4576,
      "å±ķè§Ī": 4577,
      "ä¸ªçĻ¾åĪĨçĤ¹": 4578,
      "åĶ®åĲİ": 4579,
      "çļĦå¤ĸ": 4580,
      "åħ¬å¹³": 4581,
      "éĸĢ": 4582,
      "ä¹Łå°±": 4583,
      "æķ´æĶ¹": 4584,
      "æ¡Ĩ": 4585,
      "åģļæ³ķ": 4586,
      "åķı": 4587,
      "âĢķ": 4588,
      "å¼¯": 4589,
      "çĻ½çĻľé£İæĤ£èĢħ": 4590,
      "æĮ¤": 4591,
      "æĢ§æł¼": 4592,
      "é«ĺä¸Ń": 4593,
      "äºĶå¹´": 4594,
      "å±ħä½ı": 4595,
      "å§¿": 4596,
      "ç©·": 4597,
      "çļĦèĥ½åĬĽ": 4598,
      "æ¯ıä¸Ģä¸ª": 4599,
      "è°ĥçłĶ": 4600,
      "çĻ¾å§ĵ": 4601,
      "æĭħå¿ĥ": 4602,
      "çĶµåķĨ": 4603,
      "ä¸įäºĨ": 4604,
      "åīª": 4605,
      "åŃ¦èĢħ": 4606,
      "è½¬ç§»": 4607,
      "éī´å®ļ": 4608,
      "å¸ħ": 4609,
      "è¿ĺèĥ½": 4610,
      "éĢĤçĶ¨": 4611,
      "çĶµèĦĳ": 4612,
      "çĽ¸ç»ĵåĲĪ": 4613,
      "çĲĨäºĭ": 4614,
      "æľīä»Ģä¹Ī": 4615,
      "ä¸ªæĢ§": 4616,
      "èĢĮåľ¨": 4617,
      "è¡ĵ": 4618,
      "æľīæĹ¶": 4619,
      "è¥¿æĸ¹": 4620,
      "çºªå¾ĭ": 4621,
      "sh": 4622,
      "æ¼Ĥ": 4623,
      "å®ŀçİ°äºĨ": 4624,
      "å¤§èµĽ": 4625,
      "éĴ»": 4626,
      "åĨĽäºĭ": 4627,
      "å¤±è´¥": 4628,
      "æľ¬äºº": 4629,
      "çļĦé£Łçī©": 4630,
      "åħļåĴĮ": 4631,
      "èĤ©": 4632,
      "åľ°çĲĥ": 4633,
      "è¾ĵéĢģ": 4634,
      "ä»ĬåĲİ": 4635,
      "å¤§åŃ¦çĶŁ": 4636,
      "èģĬ": 4637,
      "æĺ¯åĽłä¸º": 4638,
      "èµ«": 4639,
      "å¼Ģæĭĵ": 4640,
      "æŁ³": 4641,
      "ç½ĳä¸Ĭ": 4642,
      "åĭĥ": 4643,
      "éĢļéģĵ": 4644,
      "çĥĤ": 4645,
      "åĬ©åĬĽ": 4646,
      "ä¸įå¤Ł": 4647,
      "åŀĤ": 4648,
      "æĻļä¸Ĭ": 4649,
      "èĤ¡ç¥¨": 4650,
      "å¦ĩå¥³": 4651,
      "çĸ¹": 4652,
      "æįķ": 4653,
      "èĬĿ": 4654,
      "2008": 4655,
      "ä»¬çļĦ": 4656,
      "åĲĦä½į": 4657,
      "å°İ": 4658,
      "å©Ĩ": 4659,
      "èģĶçĽŁ": 4660,
      "åĨ¶": 4661,
      "æ°ĳéĹ´": 4662,
      "éĺŁçļĦ": 4663,
      "çĽ´æĴŃ": 4664,
      "ä¸»ç®¡éĥ¨éĹ¨": 4665,
      "æģ°": 4666,
      "èĴĻåı¤": 4667,
      "åıįå¤į": 4668,
      "æİ¥ä¸ĭæĿ¥": 4669,
      "åħ¬ä¼Ĺ": 4670,
      "åł¡": 4671,
      "å¥½å¥½": 4672,
      "49": 4673,
      "æ©¡èĥ¶": 4674,
      "åĤ³": 4675,
      "äºĨæĪĳ": 4676,
      "å°ıç¼ĸ": 4677,
      "çļĦä¸Ń": 4678,
      "éģĹä¼ł": 4679,
      "èĬĤçº¦": 4680,
      "å®ļåĪ¶": 4681,
      "æĺİçĻ½": 4682,
      "æĻĴ": 4683,
      "æŃ¤åīį": 4684,
      "éĤ»": 4685,
      "å¯Ĩåº¦": 4686,
      "åĳ¨å¹´": 4687,
      "65": 4688,
      "ä¸Ģçº§": 4689,
      "çĶ¨éĢĶ": 4690,
      "é¢Ĺç²Ĵ": 4691,
      "æ¯ģ": 4692,
      "æĶ¶éĽĨ": 4693,
      "è¶³å¤Ł": 4694,
      "æ¯ıä¸ªäºº": 4695,
      "æĸ°æĹ¶ä»£ä¸ŃåĽ½çī¹èī²ç¤¾ä¼ļä¸»ä¹ī": 4696,
      "è¦ĭ": 4697,
      "ä¸§": 4698,
      "ä¸ĵç§ĳ": 4699,
      "çļĦä¸ĵä¸ļ": 4700,
      "æĬĳåĪ¶": 4701,
      "å¹²åĩĢ": 4702,
      "æīĢå¾Ĺ": 4703,
      "æĪĲæķĪ": 4704,
      "è¡Ĺéģĵ": 4705,
      "ä¼Ĳ": 4706,
      "ä¼łæĦŁ": 4707,
      "æľįçĶ¨": 4708,
      "çº·çº·": 4709,
      "å¼Ĺ": 4710,
      "è´¢äº§": 4711,
      "åĲĪæĪĲ": 4712,
      "æ¡ĳ": 4713,
      "åŃķå¦ĩ": 4714,
      "é£İæľº": 4715,
      "åĩºåıĳ": 4716,
      "åĨħæ¶µ": 4717,
      "æ»ļ": 4718,
      "åļ": 4719,
      "æıŃ": 4720,
      "ç§įç±»": 4721,
      "æ¶ĪéĻ¤": 4722,
      "å¥īçĮ®": 4723,
      "æĪĺæĸĹ": 4724,
      "çĹħçļĦ": 4725,
      "å¤§ä¼Ĺ": 4726,
      "è¾Ĳ": 4727,
      "å±±è¥¿": 4728,
      "åı¯ä»¥è¯´": 4729,
      "äºĭåĬ¡": 4730,
      "æĦĽ": 4731,
      "æħ¢æħ¢": 4732,
      "çİ©å®¶": 4733,
      "çĿ¡çľł": 4734,
      "çŃīçº§": 4735,
      "èĤĸ": 4736,
      "åı¤ä»£": 4737,
      "åĪĨç¦»": 4738,
      "èµĦè´¨": 4739,
      "æ±Łè¥¿": 4740,
      "èŀįåħ¥": 4741,
      "ä¸īåĪĨ": 4742,
      "å¤§çº¦": 4743,
      "ä¼ļåĳĺ": 4744,
      "å¼ĺæī¬": 4745,
      "çŁ¥è¯Ĩäº§æĿĥ": 4746,
      "çĽ²": 4747,
      "çĨ±": 4748,
      "åĽŀçŃĶ": 4749,
      "åĴĸ": 4750,
      "çĶµæľº": 4751,
      "æľĢä½İ": 4752,
      "æĽ´å¥½åľ°": 4753,
      "ä¿±ä¹Ĳ": 4754,
      "æīİå®ŀ": 4755,
      "çĸ¾çĹħçļĦ": 4756,
      "æĹ¥åŃĲ": 4757,
      "åİ¨": 4758,
      "æŃ¤æĹ¶": 4759,
      "éĥ¨çļĦ": 4760,
      "çĥŃæ°´": 4761,
      "èī²çļĦ": 4762,
      "æĽ°": 4763,
      "æ¶Īæ¯Ĵ": 4764,
      "ä»¥ä¸ĬçļĦ": 4765,
      "èİ·å¾ĹäºĨ": 4766,
      "çĥĺ": 4767,
      "ä¾¿åĪ©": 4768,
      "ä¸īå¤§": 4769,
      "ç»Ŀå¯¹": 4770,
      "æĸĩçī©": 4771,
      "éĥ¨éķ¿": 4772,
      "åĩºæĿ¥çļĦ": 4773,
      "äºĪä»¥": 4774,
      "å¨ĺ": 4775,
      "å¯¹æīĭ": 4776,
      "åĳ¨è¾¹": 4777,
      "ç£·": 4778,
      "ç«ĭè¶³": 4779,
      "ä¸ľåĮĹ": 4780,
      "è®°å¿Ĩ": 4781,
      "èĪªå¤©": 4782,
      "äº§çĶŁçļĦ": 4783,
      "åĵªéĩĮ": 4784,
      "æµ©": 4785,
      "åįļçī©é¦Ĩ": 4786,
      "éĻĦè¿ĳ": 4787,
      "å®ª": 4788,
      "çĽ´åĪ°": 4789,
      "éªĳ": 4790,
      "åıĺæĪĲ": 4791,
      "çļĦåŁºç¡Ģä¸Ĭ": 4792,
      "pp": 4793,
      "æĮĩæĮ¥": 4794,
      "çłĶç©¶æīĢ": 4795,
      "éĿĴå²Ľ": 4796,
      "è¾ħåĬ©": 4797,
      "åĮºçļĦ": 4798,
      "åħļç»Ħç»ĩ": 4799,
      "åľ¨è¿Ļä¸ª": 4800,
      "åŃĿ": 4801,
      "èµĽäºĭ": 4802,
      "éľį": 4803,
      "èĮĥåĽ´åĨħ": 4804,
      "éĿŀæ³ķ": 4805,
      "åīĬ": 4806,
      "åħ¬åĳĬ": 4807,
      "åĽ¾ä¹¦": 4808,
      "è§ĤçĤ¹": 4809,
      "å°Ī": 4810,
      "åħļçļĦäºĮåįģå¤§": 4811,
      "åĨ·åį´": 4812,
      "èİ²": 4813,
      "èĤ¡ä»½æľīéĻĲåħ¬åı¸": 4814,
      "å¤¹": 4815,
      "çľĭçľĭ": 4816,
      "éłŃ": 4817,
      "éĥ½åı¯ä»¥": 4818,
      "ä¸ĬåįĪ": 4819,
      "æĬķèµĦèĢħ": 4820,
      "åħ»æ®ĸ": 4821,
      "éŀĭ": 4822,
      "99": 4823,
      "åīįåĪĹ": 4824,
      "ä¸Ī": 4825,
      "çĮĽ": 4826,
      "æķ°åŃ¦": 4827,
      "æĺ¨": 4828,
      "ä¿®å¤į": 4829,
      "çĽ¸åħ³çļĦ": 4830,
      "æ··åĩĿåľŁ": 4831,
      "çĥŃæĥħ": 4832,
      "çī©åĵģ": 4833,
      "æĲı": 4834,
      "è£ķ": 4835,
      "æľŁæľĽ": 4836,
      "é«ĺäºİ": 4837,
      "å¸¸è§ģçļĦ": 4838,
      "èµļ": 4839,
      "æ¢Ŀ": 4840,
      "åı¦ä¸Ģæĸ¹éĿ¢": 4841,
      "çĪ±çļĦ": 4842,
      "çµ¦": 4843,
      "æł¡éķ¿": 4844,
      "ä¸ŃåĮ»èį¯": 4845,
      "èµ°åĲĳ": 4846,
      "è®©æĪĳ": 4847,
      "æĸ°å¢ŀ": 4848,
      "ä¹Łæ²¡æľī": 4849,
      "æłĳèĦĤ": 4850,
      "åİ¦": 4851,
      "åĿĩåĮĢ": 4852,
      "ä¹Ļçĥ¯": 4853,
      "æįŁä¼¤": 4854,
      "çĽ¸åºĶçļĦ": 4855,
      "ä¸ļç»©": 4856,
      "ç´§å¯Ĩ": 4857,
      "åħ³èĬĤ": 4858,
      "çĦĬæİ¥": 4859,
      "æ¯ıæ¬¡": 4860,
      "ä½Ĩåľ¨": 4861,
      "åŃŁ": 4862,
      "ç¼Ĩ": 4863,
      "æĭĸ": 4864,
      "å¯¼åĲĳ": 4865,
      "ä¸ŃåŃ¦": 4866,
      "éĽĨæĪĲ": 4867,
      "åĿª": 4868,
      "çıŃåŃĲ": 4869,
      "éĹª": 4870,
      "åĽ¾çīĩ": 4871,
      "ä¸ŃåĽ½äººæ°ĳ": 4872,
      "å¿ħçĦ¶": 4873,
      "åħģè®¸": 4874,
      "åĩĿèģļ": 4875,
      "å®ĥæĺ¯": 4876,
      "éĽ¶åĶ®": 4877,
      "èĤ¡ä¸ľ": 4878,
      "åıĳçļĦ": 4879,
      "ç¬¬åħŃ": 4880,
      "ä¹Łå¾Ī": 4881,
      "ç¡®è®¤": 4882,
      "å¢ĵ": 4883,
      "æ¡Īä¾ĭ": 4884,
      "ä¸ĢåĢĭ": 4885,
      "èĢĢ": 4886,
      "åľ°çĲĨ": 4887,
      "æĤ¦": 4888,
      "çī©èģĶç½ĳ": 4889,
      "åīįæĻ¯": 4890,
      "èªį": 4891,
      "ä¿¡å¿µ": 4892,
      "å¸¸å¸¸": 4893,
      "åıĳè¡Į": 4894,
      "ç½Ĳ": 4895,
      "ç¬¬ä¸Ģä¸ª": 4896,
      "é¡Į": 4897,
      "ä¸ĵçĶ¨": 4898,
      "éģµå®Ī": 4899,
      "è¾¨": 4900,
      "ä¹Łåı¯": 4901,
      "å·¨å¤§çļĦ": 4902,
      "æħ°": 4903,
      "æĪĸè®¸": 4904,
      "åĴĮæľįåĬ¡": 4905,
      "è´¤": 4906,
      "de": 4907,
      "çļĦåİŁåĪĻ": 4908,
      "è¿Ļå°±æĺ¯": 4909,
      "æŁ´": 4910,
      "..": 4911,
      "2009": 4912,
      "è´º": 4913,
      "å·¢": 4914,
      "æĢĿè·¯": 4915,
      "ä¸ºæł¸å¿ĥ": 4916,
      "88": 4917,
      "æĻ¯è§Ĥ": 4918,
      "èĪŀåı°": 4919,
      "åį±æľº": 4920,
      "è¾Ĳå°Ħ": 4921,
      "åħ±æľī": 4922,
      "ç®Ń": 4923,
      "èĭ¯": 4924,
      "æĹłè®ºæĺ¯": 4925,
      "åºŁæ°´": 4926,
      "åįłåľ°": 4927,
      "æĶ¹éĿ©å¼ĢæĶ¾": 4928,
      "éĩĩè®¿": 4929,
      "å¤Ħç½®": 4930,
      "é¡¹çĽ®çļĦ": 4931,
      "æ¸ħæĻ°": 4932,
      "è¯ĨåĪ«": 4933,
      "éļĲæĤ£": 4934,
      "çħ§çīĩ": 4935,
      "ä¼łç»ŁçļĦ": 4936,
      "åĪĽæĦı": 4937,
      "è¥¿éĥ¨": 4938,
      "ä¸įå¾Ĺä¸į": 4939,
      "ä¼ĺåħĪ": 4940,
      "å¤§å°ı": 4941,
      "æĺ¯æľĢ": 4942,
      "çĶµæ°Ķ": 4943,
      "ä¸¤äºº": 4944,
      "çĨŁæĤī": 4945,
      "äººæ°ĳç¾¤ä¼Ĺ": 4946,
      "æľīåħ³éĥ¨éĹ¨": 4947,
      "400": 4948,
      "å·¥ç¨ĭå¸Ī": 4949,
      "åıĳè¾¾": 4950,
      "ä¸ĵé¢ĺ": 4951,
      "å½»åºķ": 4952,
      "åĽłçĤº": 4953,
      "å¯ĵ": 4954,
      "æµ´": 4955,
      "åľºæĻ¯": 4956,
      "æĥ³è±¡": 4957,
      "èģļçĦ¦": 4958,
      "åįıåĬ©": 4959,
      "æĿŃå·ŀ": 4960,
      "è¦ı": 4961,
      "åıĳè¨Ģ": 4962,
      "æŀª": 4963,
      "èī³": 4964,
      "å¥³åĦ¿": 4965,
      "å®¶éĩĮ": 4966,
      "è¿Ļä¹Łæĺ¯": 4967,
      "æµĵåº¦": 4968,
      "æĺĤ": 4969,
      "ä½ıå®ħ": 4970,
      "éķ¿æ±Ł": 4971,
      "è§Ģ": 4972,
      "å²Ń": 4973,
      "ç¦ģæŃ¢": 4974,
      "æ¡¶": 4975,
      "æĶ¾å¼ĥ": 4976,
      "è¿ĽçĲĥ": 4977,
      "åī¯ä¸»ä»»": 4978,
      "èµł": 4979,
      "æ°ĳçĶŁ": 4980,
      "æĮº": 4981,
      "çĨĬ": 4982,
      "é¤Ĳé¥®": 4983,
      "æľīå®³": 4984,
      "åıĤè§Ĥ": 4985,
      "ä½ĵåĨħ": 4986,
      "ç²¾åº¦": 4987,
      "å°±åľ¨": 4988,
      "ä»¥åħį": 4989,
      "æľºåĻ¨äºº": 4990,
      "çļĦè§Ħå®ļ": 4991,
      "æĮ¡": 4992,
      "æĥ³æ³ķ": 4993,
      "èĪĴéĢĤ": 4994,
      "ç¶²": 4995,
      "46": 4996,
      "è§£æĶ¾": 4997,
      "è°Ĭ": 4998,
      "çº²": 4999,
      "æĸĩåĮĸçļĦ": 5000,
      "è¿Ŀåıį": 5001,
      "ä¸¤å¹´": 5002,
      "çŃĭ": 5003,
      "å¾®ä¿¡": 5004,
      "çĶ·åŃĲ": 5005,
      "èľĤ": 5006,
      "ç«ŀèµĽ": 5007,
      "éĢłåŀĭ": 5008,
      "æĺ¯å¯¹": 5009,
      "æĪĲå¹´": 5010,
      "æĹ¥çĽĬ": 5011,
      "çļĦæķĪæŀľ": 5012,
      "è¯¾åłĤ": 5013,
      "çļĦä¸ĢäºĽ": 5014,
      "åĨħå¤ĸ": 5015,
      "æĢĴ": 5016,
      "çĶ±æŃ¤": 5017,
      "æµ·åįĹ": 5018,
      "åĬĽåĴĮ": 5019,
      "è¼ĥ": 5020,
      "åłµ": 5021,
      "åĿĬ": 5022,
      "ç²®é£Ł": 5023,
      "éĤĵ": 5024,
      "éĢļé£İ": 5025,
      "æĢİæł·": 5026,
      "æĭĮ": 5027,
      "å°ĳæķ°": 5028,
      "éĢīçĶ¨": 5029,
      "ç§°åı·": 5030,
      "æ°´åĪ©": 5031,
      "ä¹Łè®¸": 5032,
      "ç«Ļåľ¨": 5033,
      "ä¸ºå®¢æĪ·": 5034,
      "æ¯ķç«Ł": 5035,
      "ç¾¤ä½ĵ": 5036,
      "éĬ": 5037,
      "äº§åĵģè´¨éĩı": 5038,
      "çĶµåĻ¨": 5039,
      "ä¾ĿéĿł": 5040,
      "åĩıè½»": 5041,
      "æĢ§è´¨": 5042,
      "åıįå¯¹": 5043,
      "åį°è±¡": 5044,
      "ãĢį,": 5045,
      "ä¼ļçļĦ": 5046,
      "çĶ¨æ°´": 5047,
      "ãĢģâĢľ": 5048,
      "åĩºåİ»": 5049,
      "æľįè£ħ": 5050,
      "åĩºåı°": 5051,
      "è¦ģæľī": 5052,
      "ç»Īäºİ": 5053,
      "åĪĻæĺ¯": 5054,
      "çĶ¨èį¯": 5055,
      "æĬĵä½ı": 5056,
      "éĢıæĺİ": 5057,
      "é¼ł": 5058,
      "çº¿è·¯": 5059,
      "èĦ±è´«": 5060,
      "è¢Ń": 5061,
      "èĢ¶": 5062,
      "åĮ¹": 5063,
      "æĤ¨çļĦ": 5064,
      "å½±çīĩ": 5065,
      "åħļåı²": 5066,
      "é¸£": 5067,
      "çľĭæĿ¥": 5068,
      "èĥģ": 5069,
      "èĥº": 5070,
      "ç¯Ģ": 5071,
      "è®¼": 5072,
      "æķĻç»ĥ": 5073,
      "çĶŁèĤ²": 5074,
      "éĩįéĩı": 5075,
      "è¿Ľç¨ĭ": 5076,
      "æ¯ħ": 5077,
      "åľ°éĿ¢": 5078,
      "è§Ĩè§ī": 5079,
      "ä¾Ŀæīĺ": 5080,
      "é»Ħéĩĳ": 5081,
      "åĸ®": 5082,
      "çļĦåħ³éĶ®": 5083,
      "éĭ": 5084,
      "å°±æľī": 5085,
      "åĲĮæĦı": 5086,
      "åģļäºĨ": 5087,
      "çļĦçİ¯å¢ĥ": 5088,
      "å½±è§Ĩ": 5089,
      "çĶ¨äºº": 5090,
      "åī¯ä¹¦è®°": 5091,
      "ç¼ĸåĪ¶": 5092,
      "é«ĺèĢĥ": 5093,
      "çŁ©": 5094,
      "å¯Įæľī": 5095,
      "ä¸ĬéĿ¢": 5096,
      "éģĶ": 5097,
      "é¡¾å®¢": 5098,
      "ä¸įä½Ĩ": 5099,
      "å¿ĥéĩĮ": 5100,
      "åīĩ": 5101,
      "äº§ä¸ļåıĳå±ķ": 5102,
      "éħ±": 5103,
      "æĸ°æĹ¶ä»£ä¸ŃåĽ½çī¹èī²ç¤¾ä¼ļä¸»ä¹īæĢĿæĥ³": 5104,
      "èį£èİ·": 5105,
      "ä¿±ä¹Ĳéĥ¨": 5106,
      "è¾ĥä½İ": 5107,
      "ç¥ĸåĽ½": 5108,
      "è®²è§£": 5109,
      "æİ¥è¿ĳ": 5110,
      "æĽ´é«ĺ": 5111,
      "çĹķ": 5112,
      "æķħéļľ": 5113,
      "ED": 5114,
      "åģ·": 5115,
      "éĶ¡": 5116,
      "éħ¶": 5117,
      "æ³ª": 5118,
      "æĪĳä»¬åľ¨": 5119,
      "æĸ¹éĴĪ": 5120,
      "çļĦå®īåħ¨": 5121,
      "ch": 5122,
      "åĬŁçİĩ": 5123,
      "å·©": 5124,
      "ä¸Ģæĸ¹éĿ¢": 5125,
      "çĶ¨æĿ¥": 5126,
      "çļĦä¸ŃåĽ½": 5127,
      "æĺ¯ä¸ª": 5128,
      "æ£ĭ": 5129,
      "58": 5130,
      "å°½å¿«": 5131,
      "åįľ": 5132,
      "çģµæ´»": 5133,
      "æĺ¥èĬĤ": 5134,
      "2023": 5135,
      "æľīåĬĽ": 5136,
      "åĲįç§°": 5137,
      "æ¶ĪèĢĹ": 5138,
      "å¸ĪèĮĥ": 5139,
      "åıī": 5140,
      "éĴ¢ç®¡": 5141,
      "çħĮ": 5142,
      "è«ĭ": 5143,
      "èĮħ": 5144,
      "å¹´åºķ": 5145,
      "åĲįåįķ": 5146,
      "èĲ¬": 5147,
      "èº«ä½ĵåģ¥åº·": 5148,
      "çĬ¹": 5149,
      "åĪĳäºĭ": 5150,
      "å·®è·Ŀ": 5151,
      "æĶ¶è´¹": 5152,
      "åłª": 5153,
      "æ¸©æļĸ": 5154,
      "æľµ": 5155,
      "ä¹¦æ³ķ": 5156,
      "æıĲé«ĺäºĨ": 5157,
      "è·¯çº¿": 5158,
      "çļĩå¸Ŀ": 5159,
      "è´¢å¯Į": 5160,
      "åĮĹäº¬å¸Ĥ": 5161,
      "é¬¼": 5162,
      "åį¢": 5163,
      "åľ°åĮºçļĦ": 5164,
      "æĸ°åĮº": 5165,
      "åİĭç¼©": 5166,
      "è¢«åĳĬ": 5167,
      "å¥ĸåĬ±": 5168,
      "åķ¡": 5169,
      "ä¸įæĺĵ": 5170,
      "ä¼ĳéĹ²": 5171,
      "è¯īè®¼": 5172,
      "æ±¡æ°´å¤ĦçĲĨ": 5173,
      "åİĺ": 5174,
      "ä¼ļåľ¨": 5175,
      "éĩĬæĶ¾": 5176,
      "äººæ°ĳæ³ķéĻ¢": 5177,
      "å®¡è®¡": 5178,
      "æº«": 5179,
      "å¼ķèµ·çļĦ": 5180,
      "å¾Īæľī": 5181,
      "å±Ī": 5182,
      "è¸ª": 5183,
      "å¼ºå¤§": 5184,
      "åĪ°çļĦ": 5185,
      "å¸¶": 5186,
      "åħļæĶ¯éĥ¨": 5187,
      "åĩºè¡Ģ": 5188,
      "è¿ĩåº¦": 5189,
      "æľ´": 5190,
      "çľŁçĲĨ": 5191,
      "æĿĲæĸĻçļĦ": 5192,
      "åģļçļĦ": 5193,
      "é¡ŀ": 5194,
      "åįĥä¸ĩ": 5195,
      "å·¥äºº": 5196,
      "å°ºå¯¸": 5197,
      "çº³åħ¥": 5198,
      "åł±": 5199,
      "æīĢéľĢ": 5200,
      "å¤«å¦»": 5201,
      "èĽĭçĻ½è´¨": 5202,
      "ç¡®è¯Ĭ": 5203,
      "äºĴåĬ¨": 5204,
      "ç§ĺä¹¦": 5205,
      "åĽ½å®¶åĴĮ": 5206,
      "æ³³": 5207,
      "åİĮ": 5208,
      "åĲĪçī©": 5209,
      "éĺ²çģ«": 5210,
      "æ£Ģå¯Ł": 5211,
      "çĶŁäº§çļĦ": 5212,
      "ç¼ĸè¾ĳ": 5213,
      "çĽĴ": 5214,
      "æĳĺ": 5215,
      "é¢ĸ": 5216,
      "èĺ": 5217,
      "çļĦç®¡çĲĨ": 5218,
      "æ°´æ³¥": 5219,
      "åĬ¨æĢģ": 5220,
      "æľīåĬ©äºİ": 5221,
      "æ²¦": 5222,
      "çº³ç¨İ": 5223,
      "ä¸Ģä»½": 5224,
      "ç»´åº¦": 5225,
      "ä¹Ķ": 5226,
      "æĺ¯ä»¥": 5227,
      "å¼¥": 5228,
      "å¼ĢåĲ¯": 5229,
      "çļĦåĨħå®¹": 5230,
      "æĶ¿åįı": 5231,
      "è¿Ľå±ķ": 5232,
      "åİļçļĦ": 5233,
      "æ¿Ģåıĳ": 5234,
      "ç¦ģåĮº": 5235,
      "é¢ĩ": 5236,
      "ä¸įçŁ¥": 5237,
      "èµ·éĩį": 5238,
      "ç³ĸå°¿": 5239,
      "è¾½å®ģ": 5240,
      "å¹¶éĿŀ": 5241,
      "ä¿¡ä»»": 5242,
      "è¿ĺåľ¨": 5243,
      "çĴ°": 5244,
      "ç»ĵå©ļ": 5245,
      "ä¸Ģçº¿": 5246,
      "ä»ĸè¯´": 5247,
      "æĺ¯ä¸Ģå®¶": 5248,
      "çĤİçĹĩ": 5249,
      "åīįå¾Ģ": 5250,
      "çļĦå¸Ĥåľº": 5251,
      "ä¸ĵæ³¨": 5252,
      "éĺ´éģĵ": 5253,
      "æī¶è´«": 5254,
      "å¤ļå®¶": 5255,
      "æĽ´æį¢": 5256,
      "æĽ´å¤§": 5257,
      "çĽĳå¯Ł": 5258,
      "ä»ĸåĢĳ": 5259,
      "æİĪæĿĥ": 5260,
      "èµ¤": 5261,
      "or": 5262,
      "è½»æĿ¾": 5263,
      "æĭ³": 5264,
      "ä¸ľæĸ¹": 5265,
      "çŃĸçķ¥": 5266,
      "æĬĵå¥½": 5267,
      "åħ¨èº«": 5268,
      "æĿ±": 5269,
      "ä¸Ģåľº": 5270,
      "çļĦè¿ĩç¨ĭä¸Ń": 5271,
      "è´¾": 5272,
      "ä¸ŃéĹ´": 5273,
      "å°Ĩåħ¶": 5274,
      "çĹĽèĭ¦": 5275,
      "èį¡": 5276,
      "çĶ¨åĵģ": 5277,
      "å¤ļå¹´çļĦ": 5278,
      "çļĦçłĶç©¶": 5279,
      "åĴĸåķ¡": 5280,
      "ä¸īè§Ĵ": 5281,
      "æĦıå¤ĸ": 5282,
      "æī¿åĮħ": 5283,
      "éĶĲ": 5284,
      "å¥³åŃĲ": 5285,
      "æķ´çĲĨ": 5286,
      "åĪĨéħį": 5287,
      "åĲĦèĩª": 5288,
      "èĢĮä¸įæĺ¯": 5289,
      "æĤł": 5290,
      "çŃīåľ°": 5291,
      "è¯ŀ": 5292,
      "47": 5293,
      "çİĽ": 5294,
      "æĽ´æľī": 5295,
      "çŃ¾è®¢": 5296,
      "æĭįæĳĦ": 5297,
      "èª¿": 5298,
      "æĻºèĥ½åĮĸ": 5299,
      "å¼Ħ": 5300,
      "èĤ¢": 5301,
      "éĴ¢éĵģ": 5302,
      "æĬĽ": 5303,
      "âĹ": 5304,
      "å¹¿ä¸ľçľģ": 5305,
      "é¢Ħæµĭ": 5306,
      "çĶµæºĲ": 5307,
      "è´§çī©": 5308,
      "é¹ı": 5309,
      "åĮ»å¸Ī": 5310,
      "èµģ": 5311,
      "éĻ¶çĵ·": 5312,
      "æľºåºĬ": 5313,
      "ç¾İè§Ĥ": 5314,
      "ä¸įéľĢè¦ģ": 5315,
      "éĤĢè¯·": 5316,
      "è¿ĩäºİ": 5317,
      "çī¢è®°": 5318,
      "ä¸Ģä½ĵåĮĸ": 5319,
      "çļĦè®¾è®¡": 5320,
      "å¢ŀéĢŁ": 5321,
      "ç§Łèµģ": 5322,
      "æķ¦": 5323,
      "çµ±": 5324,
      "èĲĿ": 5325,
      "æĪĸæĺ¯": 5326,
      "åľ¨è¿ĻéĩĮ": 5327,
      "85": 5328,
      "éľ¸": 5329,
      "åŃĲå¥³": 5330,
      "è¡£æľį": 5331,
      "åŃ©åŃĲä»¬": 5332,
      "ç©Ĩ": 5333,
      "æĿĳæ°ĳ": 5334,
      "ä¿Ŀåħ»": 5335,
      "éłħ": 5336,
      "éļ¾åº¦": 5337,
      "æķĪåºĶ": 5338,
      "å¢ŀåĢ¼": 5339,
      "ä¾Ľç»Ļ": 5340,
      "ä¸Ģä¸ªæĸ°çļĦ": 5341,
      "å»ºç«ĭäºĨ": 5342,
      "ä¸¾æİª": 5343,
      "åıĳæĺİ": 5344,
      "çĽĳçĿ£ç®¡çĲĨ": 5345,
      "äºĭå®ŀä¸Ĭ": 5346,
      "å½¼æŃ¤": 5347,
      "å®ĹæķĻ": 5348,
      "æ¿ĢåĬ±": 5349,
      "ç¸½": 5350,
      "æĸ°åħ´": 5351,
      "åį§": 5352,
      "çººç»ĩ": 5353,
      "åĲĮåŃ¦ä»¬": 5354,
      "æĴ¤": 5355,
      "æĪĳæł¡": 5356,
      "æļĳ": 5357,
      "è¿ĲåĬ¨åĳĺ": 5358,
      "è½¨éģĵ": 5359,
      "æĩĪ": 5360,
      "å±Ģéĥ¨": 5361,
      "æī¿è¯º": 5362,
      "95": 5363,
      "ä¼ļéķ¿": 5364,
      "ä¿®æĶ¹": 5365,
      "èĩ³äºİ": 5366,
      "ä¾¯": 5367,
      "å®ŀçĶ¨": 5368,
      "èĢģå¹´äºº": 5369,
      "çļĦçī¹çĤ¹": 5370,
      "è§Ħæł¼": 5371,
      "æ°Ł": 5372,
      "åı¯èĥ½æĺ¯": 5373,
      "ä»²": 5374,
      "æ°®": 5375,
      "é¥¼": 5376,
      "äººå·¥æĻºèĥ½": 5377,
      "ä»·åĢ¼è§Ĥ": 5378,
      "éĺ²èĮĥ": 5379,
      "äºŃ": 5380,
      "66": 5381,
      "éŁ§": 5382,
      "ä¼łæĦŁåĻ¨": 5383,
      "æ¶¯": 5384,
      "éĢĶå¾Ħ": 5385,
      "éļıæĹ¶": 5386,
      "æĪĲäºº": 5387,
      "ç¨İåĬ¡": 5388,
      "é«ĺåİĭ": 5389,
      "åĵ²åŃ¦": 5390,
      "åĭŁ": 5391,
      "å®¢è§Ĥ": 5392,
      "æĶ¶èİ·": 5393,
      "åĵŃ": 5394,
      "æŃ£ç¡®çļĦ": 5395,
      "ç·ļ": 5396,
      "å¦»åŃĲ": 5397,
      "å¤§æ°Ķ": 5398,
      "çŃĽ": 5399,
      "çļĦåĬĽéĩı": 5400,
      "è¦ģç´ł": 5401,
      "èĪŁ": 5402,
      "æĶ¾åħ¥": 5403,
      "ç»ĨèĬĤ": 5404,
      "èµĶåģ¿": 5405,
      "æ¸´": 5406,
      "ä½¿çĶ¨å¯¿åĳ½": 5407,
      "al": 5408,
      "å»¶éķ¿": 5409,
      "å§Ķæīĺ": 5410,
      "åĤĻ": 5411,
      "èŃ°": 5412,
      "åĳ³éģĵ": 5413,
      "å¦Ĩ": 5414,
      "æĦıå¤§åĪ©": 5415,
      "éŃħ": 5416,
      "å¨ģèĥģ": 5417,
      "äºĮçº§": 5418,
      "æĵħ": 5419,
      "åŀ«": 5420,
      "çĪ±åĽ½": 5421,
      "ä¸įå¦Ĥ": 5422,
      "åıĺéĿ©": 5423,
      "ä¼ĺæĥł": 5424,
      "éĺ²æ°´": 5425,
      "å®¡æī¹": 5426,
      "èµ·äºĨ": 5427,
      "äººæĸĩ": 5428,
      "æľªæĿ¥çļĦ": 5429,
      "ä¹łè¿ĳå¹³æĸ°æĹ¶ä»£ä¸ŃåĽ½çī¹èī²ç¤¾ä¼ļä¸»ä¹īæĢĿæĥ³": 5430,
      "åľ°è´¨": 5431,
      "æĽ¸": 5432,
      "åİī": 5433,
      "è¿ĩæķı": 5434,
      "æ¶²ä½ĵ": 5435,
      "æĹ¥åīį": 5436,
      "é«ĺè¾¾": 5437,
      "æĭĽèģĺ": 5438,
      "çļĦåıĳçĶŁ": 5439,
      "å¼ºå¤§çļĦ": 5440,
      "è§£çŃĶ": 5441,
      "æľīåºı": 5442,
      "æĺİæĺŁ": 5443,
      "éģ¥": 5444,
      "åĲįä¸º": 5445,
      "å¹¿åľº": 5446,
      "å½ĵå¹´": 5447,
      "æ¼Ķåĩº": 5448,
      "å·¥ä¼ļ": 5449,
      "ä¸ľåįĹ": 5450,
      "æĹłäºº": 5451,
      "42": 5452,
      "åĨ¬åŃ£": 5453,
      "å¤ļåĲĥ": 5454,
      "ä¸Ģå¸¦ä¸Ģè·¯": 5455,
      "æİ§èĤ¡": 5456,
      "ä¹ĭä¸ĭ": 5457,
      "è¦ĸ": 5458,
      "åºŁæ°Ķ": 5459,
      "æłĩåĩĨåĮĸ": 5460,
      "äºĭä¸ļåįķä½į": 5461,
      "æµģè¡Į": 5462,
      "çļĦè´¨éĩı": 5463,
      "å·²æĪĲä¸º": 5464,
      "197": 5465,
      "å½ķåıĸ": 5466,
      "çĽĹ": 5467,
      "çĥ¤": 5468,
      "åĽłèĢĮ": 5469,
      "å±ĢéĿ¢": 5470,
      "56": 5471,
      "éĩĳé¢Ŀ": 5472,
      "æĸľ": 5473,
      "éĹ¹": 5474,
      "å®¡æł¸": 5475,
      "æĬ«": 5476,
      "è¿Ļä½į": 5477,
      "éĿ¢åīį": 5478,
      "æłª": 5479,
      "æĻĤéĸĵ": 5480,
      "ç»ıè´¹": 5481,
      "æĺ¾çĦ¶": 5482,
      "åħĪè¿ĽçļĦ": 5483,
      "BA": 5484,
      "ä»İä¸¥": 5485,
      "åĲįçļĦ": 5486,
      "å¯¼æ¼Ķ": 5487,
      "ä¸ĺ": 5488,
      "å¸ķ": 5489,
      "om": 5490,
      "ä¿ĿåŃĺ": 5491,
      "éĺ²èħĲ": 5492,
      "æŁ¥çľĭ": 5493,
      "è©²": 5494,
      "æł½": 5495,
      "ä¸įå¼Ģ": 5496,
      "è¿Ļç±»": 5497,
      "å£ĵ": 5498,
      "çļĦä¸ľè¥¿": 5499,
      "æķ°åŃĹåĮĸ": 5500,
      "èĩªèº«çļĦ": 5501,
      "åħ¨æĸ¹ä½į": 5502,
      "èĲ½åľ°": 5503,
      "æ´»åĬ¨çļĦ": 5504,
      "ä½Ļäºº": 5505,
      "åįĬåľº": 5506,
      "ä¼Łå¤§å¤įåħ´": 5507,
      "æĦıéĹ´": 5508,
      "ä¸įå¿ĺ": 5509,
      "èĤĮèĤī": 5510,
      "ä¿±": 5511,
      "è£Ŀ": 5512,
      "æ£ļ": 5513,
      "èĨı": 5514,
      "æķıæĦŁ": 5515,
      "ä¼ļå¯¼èĩ´": 5516,
      "åĪ°è¾¾": 5517,
      "æķĳæı´": 5518,
      "å½ĵä»£": 5519,
      "èįĴ": 5520,
      "å²³": 5521,
      "æĢ»ç»Ł": 5522,
      "çľŁæŃ£çļĦ": 5523,
      "å¾Īå°ĳ": 5524,
      "æĭĽæłĩ": 5525,
      "ç»µ": 5526,
      "è·µè¡Į": 5527,
      "åįģäºĶ": 5528,
      "è£¡": 5529,
      "æĹ¥çļĦ": 5530,
      "IS": 5531,
      "ç§©": 5532,
      "éĥİ": 5533,
      "èģĮèĥ½": 5534,
      "æĽ´å¤§çļĦ": 5535,
      "æĲŃéħį": 5536,
      "æĹłçĸĳ": 5537,
      "ĠâĢľ": 5538,
      "åħļå§Ķä¹¦è®°": 5539,
      "å»ºéĢł": 5540,
      "å¤ĸåĽ½": 5541,
      "èĥĸ": 5542,
      "æĸĩèīº": 5543,
      "ç²¾åĵģ": 5544,
      "éģµå¾ª": 5545,
      "æ¶¦æ»ĳ": 5546,
      "è¯¾é¢ĺ": 5547,
      "åĲĪçĲĨçļĦ": 5548,
      "çĩĥçĥ§": 5549,
      "èģª": 5550,
      "è¿ĩçļĦ": 5551,
      "éĢīæīĭ": 5552,
      "ç§īæī¿": 5553,
      "å¿ĥæĥħ": 5554,
      "æĽ¿ä»£": 5555,
      "åħ¬æ°ĳ": 5556,
      "éĢĢä¼ĳ": 5557,
      "ç¨ĭåº¦ä¸Ĭ": 5558,
      "æĸ°é²ľ": 5559,
      "æĿĥå¨ģ": 5560,
      "åį³å°Ĩ": 5561,
      "åħ¬åĬ¡": 5562,
      "æĬļ": 5563,
      "å¾Īé«ĺ": 5564,
      "ä¼łæŁĵ": 5565,
      "ç¿¼": 5566,
      "æ¶Īå¤±": 5567,
      "ä¹Łä¸įä¼ļ": 5568,
      "å¸¸è§Ħ": 5569,
      "è¡¥è´´": 5570,
      "ä¸¢": 5571,
      "æĸ¯åĿ¦": 5572,
      "æıĲäº¤": 5573,
      "èĦĨ": 5574,
      "åħĦå¼Ł": 5575,
      "æ¬ł": 5576,
      "æľįåĬ¡çļĦ": 5577,
      "çĨĶ": 5578,
      "å°Ŀè¯ķ": 5579,
      "ç«Ń": 5580,
      "çŃīé¢ĨåŁŁ": 5581,
      "èĥļ": 5582,
      "è¦ģåľ¨": 5583,
      "å°±ä¸į": 5584,
      "çĪ½": 5585,
      "å¥ł": 5586,
      "å¤ªå¤ļ": 5587,
      "ä¹Łå°Ĩ": 5588,
      "æıĲåĪ°è¿ĩ": 5589,
      "åĽŃæŀĹ": 5590,
      "ç¤¾ä¼ļçļĦ": 5591,
      "è¯ģæį®": 5592,
      "æīŃ": 5593,
      "åĽ¢ä½ĵ": 5594,
      "å¹½": 5595,
      "æľĢéĩįè¦ģ": 5596,
      "çĹħåĽł": 5597,
      "ç³Ĭ": 5598,
      "æĢ§å¥½": 5599,
      "æ¨Ļ": 5600,
      "LED": 5601,
      "åĪ©äºļ": 5602,
      "æĺ¯ä¸įæĺ¯": 5603,
      "äºĴçĽ¸": 5604,
      "ä¼ĺè´¨çļĦ": 5605,
      "è®©ä½ł": 5606,
      "åıĳåĩº": 5607,
      "å·©åĽº": 5608,
      "åĲĦåĽ½": 5609,
      "å¾ģç¨ĭ": 5610,
      "é£ŀæľº": 5611,
      "éĢ»": 5612,
      "èĳ±": 5613,
      "äºı": 5614,
      "åºĻ": 5615,
      "æĭ¨": 5616,
      "æ®¿": 5617,
      "ç§©åºı": 5618,
      "ä¼ª": 5619,
      "æīĩ": 5620,
      "è¥¿çıŃ": 5621,
      "æīĵåĩ»": 5622,
      "æµªè´¹": 5623,
      "æ¶Į": 5624,
      "çµĦ": 5625,
      "èĶ¡": 5626,
      "ä¼łéĢĴ": 5627,
      "çºĮ": 5628,
      "äº§èĥ½": 5629,
      "å®ŀåľ¨": 5630,
      "é£İæĻ¯": 5631,
      "éľī": 5632,
      "è¥¿çıŃçīĻ": 5633,
      "çĻ¼å±ķ": 5634,
      "æĻ®åıĬ": 5635,
      "åıĤèµĽ": 5636,
      "ç³ĸå°¿çĹħ": 5637,
      "åıł": 5638,
      "çļĦéĢīæĭ©": 5639,
      "åĲĮæľŁ": 5640,
      "çŃīå¾ħ": 5641,
      "é¤Ĭ": 5642,
      "éĽ¢": 5643,
      "å¨ľ": 5644,
      "èĬ½": 5645,
      "æ¨Ĥ": 5646,
      "æīĵåį°": 5647,
      "åĴ³": 5648,
      "åĽŀå®¶": 5649,
      "è¹Ī": 5650,
      "ç¤¾äº¤": 5651,
      "åĿļæĮģä»¥": 5652,
      "æ¾³éĹ¨": 5653,
      "éħįå¤ĩ": 5654,
      "æī©æķ£": 5655,
      "è¡Ķ": 5656,
      "æĽ¾ç»ıæıĲåĪ°è¿ĩ": 5657,
      "3000": 5658,
      "çļĦç¤¾ä¼ļ": 5659,
      "å¤ĸè§Ĥ": 5660,
      "çĶŁçĲĨ": 5661,
      "èĩªåŃ¦": 5662,
      "éĨī": 5663,
      "44": 5664,
      "é²ľæĺİ": 5665,
      "æĹ¥èĩ³": 5666,
      "å¿«éĢŁå¢ŀéķ¿": 5667,
      "ä¸Ĭæľī": 5668,
      "æŁı": 5669,
      "æķĻèĤ²çļĦ": 5670,
      "åĨįçĶŁ": 5671,
      "çħ¤çĤŃ": 5672,
      "çĲĨçĶ±": 5673,
      "åīµ": 5674,
      "å°ıè¯´": 5675,
      "æĢĿèĢĥè¿Ļä¸ªéĹ®é¢ĺ": 5676,
      "è¶ħå£°": 5677,
      "éĹ´çļĦ": 5678,
      "é¦Ī": 5679,
      "æĬ¼": 5680,
      "ä¸¸": 5681,
      "ä»¥å¤ĸ": 5682,
      "èĤ¡æĿĥ": 5683,
      "æĸ¹çļĦ": 5684,
      "å³¡": 5685,
      "æķ°æį®æĺ¾ç¤º": 5686,
      "è¯»ä¹¦": 5687,
      "é¹¿": 5688,
      "ä¸Ńåħ¨ä¼ļ": 5689,
      "æ§½": 5690,
      "æ²«": 5691,
      "æĹħè¡Į": 5692,
      "çĭĢ": 5693,
      "ç´Ħ": 5694,
      "å¸ĤæĶ¿åºľ": 5695,
      "æ¶Ľ": 5696,
      "æī®": 5697,
      "åħ½": 5698,
      "æī¹è¯Ħ": 5699,
      "åľ¨åħ¨åĽ½": 5700,
      "ä¸ºä¸Ńå¿ĥ": 5701,
      "çŃīå¤ļ": 5702,
      "å¥³åŃ©": 5703,
      "é«ĺæĸ°æĬĢæľ¯": 5704,
      "èĭ¹": 5705,
      "éĶĢéĩı": 5706,
      "åħļçļĦåįģä¹Ŀ": 5707,
      "æĪĳæĥ³": 5708,
      "éĢłæĪĲçļĦ": 5709,
      "èĢĲç£¨": 5710,
      "èı©": 5711,
      "çĭ¬çī¹çļĦ": 5712,
      "ä¼ļåĩºçİ°": 5713,
      "æ¨¡åŀĭ": 5714,
      "ä»İä¸ļ": 5715,
      "æ°ĳèĲ¥": 5716,
      "å¢ŀåĬłäºĨ": 5717,
      "åĲĦçķĮ": 5718,
      "çģ¾å®³": 5719,
      "æķĻæĿĲ": 5720,
      "è½´æī¿": 5721,
      "600": 5722,
      "çļĦäººçĶŁ": 5723,
      "å·²æľī": 5724,
      "è¾¦": 5725,
      "éĢīä¸¾": 5726,
      "æĥ©": 5727,
      "å¿ĥèĦı": 5728,
      "æĺ¾å¾Ĺ": 5729,
      "at": 5730,
      "å½¢çĬ¶": 5731,
      "å®ĮæĪĲäºĨ": 5732,
      "è©±": 5733,
      "è¾ĥé«ĺçļĦ": 5734,
      "è®¾æľī": 5735,
      "ä¾¿æĺ¯": 5736,
      "éļ¾é¢ĺ": 5737,
      "éĤ£æł·": 5738,
      "éĲ": 5739,
      "èĨ¨": 5740,
      "æĬ¥èŃ¦": 5741,
      "åħļåĳĺå¹²éĥ¨": 5742,
      "å·´è¥¿": 5743,
      "éĽ£": 5744,
      "çºªå½ķ": 5745,
      "åĬ©æĶ»": 5746,
      "åħħè¶³": 5747,
      "åıĺå½¢": 5748,
      "åŁİåĮº": 5749,
      "ä½ĽæķĻ": 5750,
      "å±±ä¸ľçľģ": 5751,
      "150": 5752,
      "æĬĬæĪĳä»¬": 5753,
      "çĶŁäº§çº¿": 5754,
      "ç»ĻäºĨ": 5755,
      "åĨħå¿ĥ": 5756,
      "ä½¿åħ¶": 5757,
      "æ£Ĵ": 5758,
      "çĺ¦": 5759,
      "çļĦæķħäºĭ": 5760,
      "å¯¹åħ¶": 5761,
      "çķľ": 5762,
      "çħ§æĺİ": 5763,
      "ä¸»åĬŀ": 5764,
      "åľ°éľĩ": 5765,
      "å»ºè®¾åĴĮ": 5766,
      "120": 5767,
      "å¤ļå¹´æĿ¥": 5768,
      "å¾®çĶŁçī©": 5769,
      "èŃ·": 5770,
      "èĭ¹æŀľ": 5771,
      "æķ´æ²»": 5772,
      "å¯¹æİ¥": 5773,
      "æ³ķå®ļ": 5774,
      "å¯¹å¾ħ": 5775,
      "æĢ¨": 5776,
      "åĲķ": 5777,
      "éģ©": 5778,
      "ç¼ºçĤ¹": 5779,
      "æĢ»éĥ¨": 5780,
      "æķ°æİ§": 5781,
      "ä¸»åľº": 5782,
      "éģ£": 5783,
      "çľĭçĿĢ": 5784,
      "éĩįå¤į": 5785,
      "çĶµè§Ĩåī§": 5786,
      "ç¢Ĺ": 5787,
      "çŃĴ": 5788,
      "éĢļæĬ¥": 5789,
      "è¦º": 5790,
      "ç¥Ń": 5791,
      "ãĢĤãĢį": 5792,
      "åĲĮæĹ¶ä¹Ł": 5793,
      "Ġå¹´": 5794,
      "äººåĬĽèµĦæºĲ": 5795,
      "åį¸": 5796,
      "çİ°åľ¨çļĦ": 5797,
      "èħĬ": 5798,
      "åįĵè¶Ĭ": 5799,
      "ä¸Ĭå¹´": 5800,
      "è¯¸å¤ļ": 5801,
      "çĶŁåĬ¨": 5802,
      "å±ĤéĿ¢": 5803,
      "è½ī": 5804,
      "å®ŀä¹ł": 5805,
      "ä¸ĭè½½": 5806,
      "2007": 5807,
      "éª¤": 5808,
      "ä¸»æ¼Ķ": 5809,
      "çĶµç¼Ĩ": 5810,
      "èĪ°": 5811,
      "é¢ĦæľŁ": 5812,
      "éĢĻåĢĭ": 5813,
      "çļĦè¿ĩç¨ĭ": 5814,
      "å¤§äºİ": 5815,
      "éĨĽ": 5816,
      "åħĴ": 5817,
      "è¨±": 5818,
      "è¥¿åįĹ": 5819,
      "çķĻä¸ĭ": 5820,
      "æĪĳä»¬åı¯ä»¥": 5821,
      "åŃĺåĤ¨": 5822,
      "æ¸ĹéĢı": 5823,
      "ä¸įåľ¨": 5824,
      "æĢ»é¢Ŀ": 5825,
      "åĬŀäºĭ": 5826,
      "æ·®": 5827,
      "å»Ĭ": 5828,
      "5000": 5829,
      "èŃī": 5830,
      "è¯Ħè®º": 5831,
      "çļĦåħ³ç³»": 5832,
      "2006": 5833,
      "le": 5834,
      "å¹³ç¨³": 5835,
      "æİĪäºĪ": 5836,
      "åŃ£èĬĤ": 5837,
      "é¥°æ¼Ķ": 5838,
      "æĹ¥åħĥ": 5839,
      "æ°Ķè±¡": 5840,
      "è¶ħè¶Ĭ": 5841,
      "ä¸įæĸŃæıĲé«ĺ": 5842,
      "æŀ¢": 5843,
      "ç®¡çĲĨä½ĵç³»": 5844,
      "äºĶè¡Įç¼º": 5845,
      "çļĦæľºä¼ļ": 5846,
      "å±Ģéķ¿": 5847,
      "æŁĲç§į": 5848,
      "æ¯ıæĹ¥": 5849,
      "çļĦçĽ®æłĩ": 5850,
      "çľ¾": 5851,
      "æĮĸæİĺ": 5852,
      "æĺ¯æĪĳä»¬": 5853,
      "è¿Ļå°±": 5854,
      "å¿ĥä¸Ń": 5855,
      "æľŁéĻĲ": 5856,
      "å¤ĸçķĮ": 5857,
      "è§Ĥçľĭ": 5858,
      "çĻ½éħĴ": 5859,
      "æ¾³å¤§åĪ©": 5860,
      "çºªå§Ķ": 5861,
      "å¿ħè¦ģçļĦ": 5862,
      "æĹ¶å°ļ": 5863,
      "å¸¸åĬ¡": 5864,
      "å¸¦æĿ¥äºĨ": 5865,
      "åĩºçĶŁäºİ": 5866,
      "å¯¨": 5867,
      "åİĨåı²ä¸Ĭ": 5868,
      "æ¡£æ¡Ī": 5869,
      "å®¶æĹı": 5870,
      "èĽĩ": 5871,
      "æ¹ĺ": 5872,
      "æĪ¿åŃĲ": 5873,
      "ä¼ĺå¼Ĥ": 5874,
      "åĪĿæŃ¥": 5875,
      "68": 5876,
      "ä¾Ŀèµĸ": 5877,
      "å¥Ī": 5878,
      "é»ĳèī²ç´ł": 5879,
      "æĶ¶åĪ°": 5880,
      "ç¨İæĶ¶": 5881,
      "è¯±åıĳ": 5882,
      "ä¸įåĪ©": 5883,
      "çĶŁæ®ĸ": 5884,
      "ä¸Ńåįİæ°ĳæĹıä¼Łå¤§å¤įåħ´": 5885,
      "ä¸Ģä½ĵçļĦ": 5886,
      "çķı": 5887,
      "ä¸Īå¤«": 5888,
      "æĵļ": 5889,
      "ç¯®æĿ¿": 5890,
      "æĺ¯æĪĳ": 5891,
      "å¸½": 5892,
      "æĪĲä¸ºäºĨ": 5893,
      "åĪĨè§£": 5894,
      "43": 5895,
      "çľī": 5896,
      "èĬĤçľģ": 5897,
      "çģ£": 5898,
      "äºīåıĸ": 5899,
      "å·¥ä½ľèĢħ": 5900,
      "çļĦçĽ®çļĦ": 5901,
      "çĶĺèĤĥ": 5902,
      "åĶ®åĲİæľįåĬ¡": 5903,
      "æį®äºĨè§£": 5904,
      "åıįèĢĮ": 5905,
      "æııè¿°": 5906,
      "çĹĴ": 5907,
      "âĸ": 5908,
      "ä¸ªä½ĵ": 5909,
      "è½¬æį¢": 5910,
      "éĴł": 5911,
      "ä¸įç¦ģ": 5912,
      "åĲĮä¸Ģ": 5913,
      "æ·±æĢĿ": 5914,
      "ç®¡çĲĨçļĦ": 5915,
      "å¥¹ä»¬": 5916,
      "åĭĺ": 5917,
      "åįıä½ľ": 5918,
      "å°ıåĮº": 5919,
      "å¾ħéģĩ": 5920,
      "å¥½å¤Ħ": 5921,
      "å¤ªéĺ³èĥ½": 5922,
      "åİĨç¨ĭ": 5923,
      "çļĦåıĺåĮĸ": 5924,
      "åĤħ": 5925,
      "æĥ§": 5926,
      "ä¸ĢçĶŁ": 5927,
      "èĢĮæĪĲ": 5928,
      "éĴ¢ç»ĵæŀĦ": 5929,
      "åľĺ": 5930,
      "çģ«çģ¾": 5931,
      "æľįåĭĻ": 5932,
      "æĮĩç¤º": 5933,
      "èķ´": 5934,
      "æį®æĤī": 5935,
      "åħ¥åı£": 5936,
      "åİĺç±³": 5937,
      "å½ĵäºĭ": 5938,
      "è¿ĺæ²¡æľī": 5939,
      "çĶµè·¯": 5940,
      "èģĮåĬ¡": 5941,
      "å¸¦åĪ°äºĨ": 5942,
      "ç¬¬ä¸ĥ": 5943,
      "éĺŁåĳĺ": 5944,
      "æ°´ä¸Ń": 5945,
      "ä¸İæŃ¤": 5946,
      "ç²¾å¿ĥ": 5947,
      "è¥¿åĮĹ": 5948,
      "52": 5949,
      "ä¹ĭæīĢä»¥": 5950,
      "å¸¦å¤´": 5951,
      "å®ŀä½ĵ": 5952,
      "èĥ½åĬĽåĴĮ": 5953,
      "è¦ģæĬĬ": 5954,
      "å¼µ": 5955,
      "éļĶç¦»": 5956,
      "èģļæ°¨": 5957,
      "æĽĿ": 5958,
      "æľ¬è´¨": 5959,
      "åįłæ¯Ķ": 5960,
      "ãĢĤãĢĤ": 5961,
      "çľŁç©º": 5962,
      "æ°´åĪĨ": 5963,
      "æĿĲè´¨": 5964,
      "å®¶å±ħ": 5965,
      "æĬĢå·§": 5966,
      "é¥®æĸĻ": 5967,
      "æī¿åıĹ": 5968,
      "æľºç»Ħ": 5969,
      "è´Łæĭħ": 5970,
      "è¾ĵåĩº": 5971,
      "æĬ¥èĢĥ": 5972,
      "ä¸įåıĹ": 5973,
      "æĢ»å±Ģ": 5974,
      "éģĹäº§": 5975,
      "å¹¿æĴŃ": 5976,
      "å®Įç¾İ": 5977,
      "éĺĲ": 5978,
      "äºĶè¡ĮåĪĨæŀĲ": 5979,
      "ä»¶äºĭ": 5980,
      "çĩĥæĸĻ": 5981,
      "äººåĴĮ": 5982,
      "çļĦè¡Įä¸º": 5983,
      "æĸ°çĶŁ": 5984,
      "ä¾ĽåºĶéĵ¾": 5985,
      "é»ı": 5986,
      "çĻĤ": 5987,
      "æľīå¤ļ": 5988,
      "çī©æĸĻ": 5989,
      "æ±°": 5990,
      "å¦¥": 5991,
      "åŃ¦æł¡çļĦ": 5992,
      "è®²è¿°": 5993,
      "ä»Ķç»Ĩ": 5994,
      "ç§įåŃĲ": 5995,
      "Ġ1": 5996,
      "è¿Ļä¸ĢçĤ¹": 5997,
      "æĪĺèĥľ": 5998,
      "æ¾³å¤§åĪ©äºļ": 5999,
      "åįģä¸Ģ": 6000,
      "ä¸ºæŃ¤": 6001,
      "æĤ¨åħ«åŃĹ": 6002,
      "åħ¨å¹´": 6003,
      "è½¦éĹ´": 6004,
      "è¯Ħå®¡": 6005,
      "å¹´åīį": 6006,
      "åİŁæľ¬": 6007,
      "çłĶç©¶ä¸Ńå¿ĥ": 6008,
      "ä¿ĿçķĻ": 6009,
      "éĢļçĶ¨": 6010,
      "åģ¥èº«": 6011,
      "èĳĽ": 6012,
      "æ²³åįĹçľģ": 6013,
      "41": 6014,
      "æ¡¥æ¢ģ": 6015,
      ":ãĢĮ": 6016,
      "èħ»": 6017,
      "éħ·": 6018,
      "ang": 6019,
      "ä¸įä»ħä»ħ": 6020,
      "å¿½è§Ĩ": 6021,
      "ç»ıæµİåŃ¦": 6022,
      "å¤§å¸Ī": 6023,
      "åĬłæĭ¿": 6024,
      "åĨ²çªģ": 6025,
      "èĪŀè¹Ī": 6026,
      "å®¢æĪ·çļĦ": 6027,
      "ä¾¨": 6028,
      "æľĢä¸º": 6029,
      "æľīæķĪåľ°": 6030,
      "è¯ĬçĸĹ": 6031,
      "èĳ¬": 6032,
      "èµ°è¿Ľ": 6033,
      "ing": 6034,
      "åĬ¨çĶ»": 6035,
      "èĮĤ": 6036,
      "çŃīéĹ®é¢ĺ": 6037,
      "åįģå¤§": 6038,
      "è¢«ç§°ä¸º": 6039,
      "ç¤¼çī©": 6040,
      "è¿Ŀè§Ħ": 6041,
      "è¯Ī": 6042,
      "åİ¿çº§": 6043,
      "ç¤¾ä¼ļä¸»ä¹īçİ°ä»£åĮĸ": 6044,
      "æ¶µçĽĸ": 6045,
      "äº¤æį¢": 6046,
      "åĲ¸éĻĦ": 6047,
      "äºĮæ¬¡": 6048,
      "ç®ĢåįķçļĦ": 6049,
      "çŃĶæ¡Ī": 6050,
      "ä¸ĵä¸ļæĬĢæľ¯": 6051,
      "å¤ļæķ°": 6052,
      "çİĦ": 6053,
      "æķ£çĥŃ": 6054,
      "çļĦç¾İ": 6055,
      "åľ°çĤ¹": 6056,
      "å¤ıåŃ£": 6057,
      "æĪĲç«ĭäºİ": 6058,
      "èģļæ°¨éħ¯": 6059,
      "éħ¬": 6060,
      "åıĥ": 6061,
      "ç¢º": 6062,
      "ç¢§": 6063,
      "æĢ¥æĢ§": 6064,
      "å¯¹æ¯Ķ": 6065,
      "åľ¨å¤§": 6066,
      "æĶ»åĩ»": 6067,
      "åľ°éĵģ": 6068,
      "æĥħèĬĤ": 6069,
      "éĤ£éĩĮ": 6070,
      "èģĮç§°": 6071,
      "è¿ĽèĢĮ": 6072,
      "åĲĮäºĭ": 6073,
      "åº§è°Ī": 6074,
      "åİŁæĿ¥": 6075,
      "çľĭè§ģ": 6076,
      "ä¸įä¸Ģæł·": 6077,
      "åĩıèĤ¥": 6078,
      "æº¢": 6079,
      "æ»ŀ": 6080,
      "åı¯ä»¥éĢļè¿ĩ": 6081,
      "åħ¥éĢī": 6082,
      "æįŁåĿı": 6083,
      "æĲľç´¢": 6084,
      "çī©èµĦ": 6085,
      "ä¸²": 6086,
      "åıĳçĶŁäºĨ": 6087,
      "ç¨³å®ļæĢ§": 6088,
      "åı¹": 6089,
      "çİ°çĬ¶": 6090,
      "éĢĬ": 6091,
      "ä¸¤æ¬¡": 6092,
      "èµĲ": 6093,
      "æĶ¶èĹı": 6094,
      "ç«ĭæ³ķ": 6095,
      "ç³ķ": 6096,
      "æ±Łèĭıçľģ": 6097,
      "et": 6098,
      "å½ĵå¤©": 6099,
      "åĪļåĪļ": 6100,
      "åĮł": 6101,
      "æĪĪ": 6102,
      "äººå¿ĥ": 6103,
      "åĵįåºĶ": 6104,
      "åĴ½": 6105,
      "åįıåķĨ": 6106,
      "éĿŀæ´²": 6107,
      "æĿ¡ä»¶ä¸ĭ": 6108,
      "æĦŁåıĹåĪ°": 6109,
      "é½Ĳåħ¨": 6110,
      "æµģéĢļ": 6111,
      "çŀ¬": 6112,
      "57": 6113,
      "ç¨»": 6114,
      "å°Ĩäºİ": 6115,
      "çĨ¬": 6116,
      "æīįä¼ļ": 6117,
      "éĢļè®¯": 6118,
      "æĸ°åĨłèĤºçĤİ": 6119,
      "é¾Ļå¤´": 6120,
      "ç»´åº¦åİ»": 6121,
      "éĢıéľ²": 6122,
      "å¹³å®ī": 6123,
      "æľĢéĩįè¦ģçļĦ": 6124,
      "äººä»¬çļĦ": 6125,
      "li": 6126,
      "åĴĮæĬĢæľ¯": 6127,
      "æĬĬæĪĳä»¬å¸¦åĪ°äºĨ": 6128,
      "èĬ¬": 6129,
      "æ°´å¹³çļĦ": 6130,
      "èĮ¨": 6131,
      "è¿Ļåı¥è¯ĿæĬĬæĪĳä»¬å¸¦åĪ°äºĨ": 6132,
      "ä¸Ģä¸ªæĸ°çļĦç»´åº¦åİ»": 6133,
      "è¿Ļåı¥è¯ĿæĬĬæĪĳä»¬å¸¦åĪ°äºĨä¸Ģä¸ªæĸ°çļĦç»´åº¦åİ»": 6134,
      "ä¸ĩå¹³æĸ¹ç±³": 6135,
      "åĩ¸": 6136,
      "éĹ¨çªĹ": 6137,
      "èı¯": 6138,
      "å¿ĥæĢģ": 6139,
      "éĳ": 6140,
      "æĹ¥åľ¨": 6141,
      "æĶ¾æĿ¾": 6142,
      "ä¸Ĭä¸Ģ": 6143,
      "éĥĳå·ŀ": 6144,
      "ä¸įä¹ħ": 6145,
      "çļĦæł¸å¿ĥ": 6146,
      "èĩĤ": 6147,
      "æĺİæĺ¾çļĦ": 6148,
      "æ¸ħçĲĨ": 6149,
      "ä¾Ŀçħ§": 6150,
      "è¨ĺ": 6151,
      "çĪ¸çĪ¸": 6152,
      "å¿ĹæĦ¿èĢħ": 6153,
      "æĸ°åıĳå±ķ": 6154,
      "æ¼ł": 6155,
      "åĥ¹": 6156,
      "éŁ¦": 6157,
      "æĳĦå½±": 6158,
      "zh": 6159,
      "é¥²": 6160,
      "åľ¨ä½¿çĶ¨": 6161,
      "è¦ª": 6162,
      "èĻ¾": 6163,
      "å®¡è§Ĩ": 6164,
      "çŃīçļĦ": 6165,
      "åģ¥åº·çļĦ": 6166,
      "æīĵçł´": 6167,
      "è²»": 6168,
      "æľīçĤ¹": 6169,
      "æĩĤå¾Ĺ": 6170,
      "ä¸ºæĤ¨": 6171,
      "éħµ": 6172,
      "å®ł": 6173,
      "èĮİ": 6174,
      "åİŁæĿĲæĸĻ": 6175,
      "åĲĮæŃ¥": 6176,
      "è¯´æ³ķ": 6177,
      "å¼ºåĽ½": 6178,
      "å»£": 6179,
      "å¸Ĥåľºä¸Ĭ": 6180,
      "ÃĹ": 6181,
      "èĭıå·ŀ": 6182,
      "é¸¿": 6183,
      "åĽĽå¤§": 6184,
      "é¼İ": 6185,
      "ç´«å¤ĸ": 6186,
      "å¥½åĥı": 6187,
      "ä¼łç»ŁæĸĩåĮĸ": 6188,
      "çĥĺå¹²": 6189,
      "æ¯ĶèµĽä¸Ń": 6190,
      ");": 6191,
      "è¡·": 6192,
      "å§ĳ": 6193,
      "æīĭç»Ń": 6194,
      "ä½İæ¸©": 6195,
      "åİ»éĻ¤": 6196,
      "51": 6197,
      "ç»Ħå»º": 6198,
      "æĥħå½¢": 6199,
      "åĨĽéĺŁ": 6200,
      "æĬķæłĩ": 6201,
      "çļĦä»·æł¼": 6202,
      "å¡ĺ": 6203,
      "èº«å¿ĥ": 6204,
      "IP": 6205,
      "æŀģå¤§": 6206,
      "çĶ¨äººåįķä½į": 6207,
      "ç²¾å¯Ĩ": 6208,
      "æħķ": 6209,
      "çļĦåºĶçĶ¨": 6210,
      "æ¸Ķ": 6211,
      "ç©¶ç«Ł": 6212,
      "ç²¤": 6213,
      "æ±¡æ³¥": 6214,
      "åħ±å»º": 6215,
      "å»ºæĿĲ": 6216,
      "åĦª": 6217,
      "ç»§æī¿": 6218,
      "åµ": 6219,
      "èĲĿåįľ": 6220,
      "åħļç»Ħ": 6221,
      "æºĥ": 6222,
      "æ¬Ĭ": 6223,
      "è¿Ļåı¥è¯ĿæĬĬæĪĳä»¬å¸¦åĪ°äºĨä¸Ģä¸ªæĸ°çļĦç»´åº¦åİ»æĢĿèĢĥè¿Ļä¸ªéĹ®é¢ĺ": 6224,
      "ä¾ĽåºĶåķĨ": 6225,
      "åħįçĸ«åĬĽ": 6226,
      "è¥¿äºļ": 6227,
      "æĭĺ": 6228,
      "å®¹éĩı": 6229,
      "ä¸įå¤ļ": 6230,
      "76": 6231,
      "ä¸ºå¤§å®¶": 6232,
      "ä¸¤åĽ½": 6233,
      "é©°": 6234,
      "ä¹¡æĿĳæĮ¯åħ´": 6235,
      "æĪĳåľ¨": 6236,
      "æĲħ": 6237,
      "åįģåħŃ": 6238,
      "æ³ķå¾ĭæ³ķè§Ħ": 6239,
      "çĻ«çĹ«çĹħ": 6240,
      "æĲŃå»º": 6241,
      "åħ¹": 6242,
      "éĢ¼": 6243,
      "2005": 6244,
      "ç»ıæµİç¤¾ä¼ļåıĳå±ķ": 6245,
      "åıĳåĬ¨æľº": 6246,
      "æĶĢ": 6247,
      "é¢Ħç¤º": 6248,
      "äººåĳĺçļĦ": 6249,
      "çĽ¸ä¼¼": 6250,
      "å®ŀåľ°": 6251,
      "çļĦåħī": 6252,
      "åĪĿæľŁ": 6253,
      "åĲİæŀľ": 6254,
      "è¾ħå¯¼": 6255,
      "è¶ħçº§": 6256,
      "å¦¨": 6257,
      "ä¸įèµ·": 6258,
      "åĢºåĬ¡": 6259,
      "å½Ń": 6260,
      "æĶ¶è´Ń": 6261,
      "äººéĥ½": 6262,
      "åĲīæŀĹ": 6263,
      "æİ¥ç§į": 6264,
      "æĬĢæľ¯åĴĮ": 6265,
      "è®¤çŁ¥": 6266,
      "æ±º": 6267,
      "éĢ²è¡Į": 6268,
      "æĹłæķ°": 6269,
      "çŃĸåĪĴ": 6270,
      "è«ĸ": 6271,
      "??": 6272,
      "çĶŁæ¶¯": 6273,
      "çĩŁ": 6274,
      "ç¶Ń": 6275,
      "è¿ĩäºĨ": 6276,
      "ç¿Ķ": 6277,
      "éŃħåĬĽ": 6278,
      "app": 6279,
      "çļĦåŃ¦ä¹ł": 6280,
      "è¯Ħä¸º": 6281,
      "äºĮæ°§åĮĸ": 6282,
      "åĨħåĪĨæ³Į": 6283,
      "ä¹ĭä¸º": 6284,
      "åıĤæķ°": 6285,
      "ç»¿åĮĸ": 6286,
      "å¯ĮåĲ«": 6287,
      "è¿Ľåıĸ": 6288,
      "è¿Ļä¹Ł": 6289,
      "åĲ¯åıĳ": 6290,
      "å®Ļ": 6291,
      "æ½ľåĬĽ": 6292,
      "åľĸ": 6293,
      "æ¬§åĨł": 6294,
      "æľįåĬ¡ä¸ļ": 6295,
      "éĻ¢å£«": 6296,
      "è¦ģæĥ³": 6297,
      "ç¨±": 6298,
      "ä»»æĦı": 6299,
      "53": 6300,
      "å¤§æ¦Ĥ": 6301,
      "å¹¿æ³ĽåºĶçĶ¨äºİ": 6302,
      "ç¡®ç«ĭ": 6303,
      "%ãĢģ": 6304,
      "åĪ¶åĨ·": 6305,
      "åĸĦäºİ": 6306,
      "æĬµæĬĹ": 6307,
      "æĪĳå¸ĮæľĽ": 6308,
      "åıĶ": 6309,
      "å±¬": 6310,
      "åı£èħĶ": 6311,
      "æ²¦ä¸º": 6312,
      "å½±åĵįåĬĽ": 6313,
      "èĵ¬": 6314,
      "ao": 6315,
      "æľ¬èµĽåŃ£": 6316,
      "æ¹¿åº¦": 6317,
      "å¤ĸéĥ¨": 6318,
      "åı£ç½©": 6319,
      "æĸ°åįİ": 6320,
      "æ³»": 6321,
      "è¾ĵåħ¥": 6322,
      "æĸ¯çī¹": 6323,
      "ä¸ºäºº": 6324,
      "è¾¾æĪĲ": 6325,
      "ä½ĵçİ°äºĨ": 6326,
      "æĬ¹": 6327,
      "å®ªæ³ķ": 6328,
      "èĹ¥": 6329,
      "éģŃéģĩ": 6330,
      "èĥİåĦ¿": 6331,
      "è´ª": 6332,
      "å®ŀè·µä¸Ń": 6333,
      "å¹¼åĦ¿åĽŃ": 6334,
      "å¤ĸäº¤": 6335,
      "çĶµåŃĲåķĨåĬ¡": 6336,
      "éĽ¶ä»¶": 6337,
      "ä¸ļåĨħ": 6338,
      "è®¿éĹ®": 6339,
      "åĩºè¡Į": 6340,
      "æģ¨": 6341,
      "åĪĩåī²": 6342,
      "åĽ½éĺ²": 6343,
      "èĳĹä½ľ": 6344,
      "åıĭè°Ĭ": 6345,
      "ç»³": 6346,
      "ä¿¡ä»°": 6347,
      "èģ¯": 6348,
      "ä¸ĢèĪ¬æĿ¥è¯´": 6349,
      "å¤ķ": 6350,
      "çļĦæĦŁè§ī": 6351,
      "ä¸įå®ľ": 6352,
      "è¿Ļéĥ¨": 6353,
      "ç§ĳåŃ¦å®¶": 6354,
      "ä»¥å¾Ģ": 6355,
      "é¢Ĩå¯¼å¹²éĥ¨": 6356,
      "å®«é¢Ī": 6357,
      "åİ»äºĨ": 6358,
      "è¢ģ": 6359,
      "çĲĥè¿·": 6360,
      "ä¸Ĭæµ·å¸Ĥ": 6361,
      "æ·ĺæ±°": 6362,
      "åŃĺåľ¨çļĦ": 6363,
      "æİĴæ°´": 6364,
      "åıĤåĬłäºĨ": 6365,
      "åĦĴ": 6366,
      "åŁºæľ¬ä¸Ĭ": 6367,
      "ç¿»è¯ĳ": 6368,
      "çłĶè®¨": 6369,
      "çĭ¼": 6370,
      "åį»": 6371,
      "æ¡Ĩæŀ¶": 6372,
      "éĥ¨éĺŁ": 6373,
      "æľĪçļĦ": 6374,
      "å¥½äºĨ": 6375,
      "æĹłéĻĲ": 6376,
      "ä¸Ĭå¸Ĥåħ¬åı¸": 6377,
      "é£ĺ": 6378,
      "ç¹ģèį£": 6379,
      "è·¯ä¸Ĭ": 6380,
      "çĪ¬": 6381,
      "é¾Ļæ±Ł": 6382,
      "æĺ¯å¾Ī": 6383,
      "ç®Ģä»ĭ": 6384,
      "ä¼ĺç§ĢçļĦ": 6385,
      "ä¸įæĥ³": 6386,
      "éĢ»è¾ĳ": 6387,
      "èĮ¶åı¶": 6388,
      "éħ¿": 6389,
      "å¤§æī¹": 6390,
      "æ²»åħļ": 6391,
      "åħ±è®¡": 6392,
      "åĿļå®ŀ": 6393,
      "æĦŁåĨĴ": 6394,
      "çļĦçĽ¸åħ³": 6395,
      "åķıé¡Į": 6396,
      "è¿ĩå¤ļ": 6397,
      "åŃ¦ä¹łè´¯å½»": 6398,
      "å¤§éĻĨ": 6399,
      "éģĵçĲĨ": 6400,
      "ä»¤æĪĳ": 6401,
      "åıĳæĢ§": 6402,
      "ä¹¾": 6403,
      "é«ĺè¡Ģåİĭ": 6404,
      "åĻ¨å®ĺ": 6405,
      "åįµå·¢": 6406,
      "æĻĤåĢĻ": 6407,
      "èŁ¹": 6408,
      "è¾īçħĮ": 6409,
      "çľĭèµ·æĿ¥": 6410,
      "åıĸæ¶Ī": 6411,
      "åĨħèĴĻåı¤": 6412,
      "ä¸ŃåĴĮ": 6413,
      "éĤª": 6414,
      "Ġåľ¨": 6415,
      "å®´": 6416,
      "es": 6417,
      "æ¬º": 6418,
      "éħįä»¶": 6419,
      "æĿ¡ä»¶çļĦ": 6420,
      "æ³Ĭ": 6421,
      "çĸ²åĬ³": 6422,
      "å®ŀæĹ¶": 6423,
      "åľ¨æł¡": 6424,
      "è¿ĺéľĢè¦ģ": 6425,
      "ä»ħä»ħ": 6426,
      "åĬłå¼ºå¯¹": 6427,
      "ç§ĳåŃ¦æĬĢæľ¯": 6428,
      "çĤ®": 6429,
      "æ·±åıĹ": 6430,
      "åľ°ä¸Ĭ": 6431,
      "èµ·çĤ¹": 6432,
      "ä»ĺåĩº": 6433,
      "å¤ıå¤©": 6434,
      "åĲİæľŁ": 6435,
      "å®ŀè®Ń": 6436,
      "æ¸£": 6437,
      "å¼ºåĪ¶": 6438,
      "98": 6439,
      "åĤ²": 6440,
      "æľ¬å±Ĭ": 6441,
      "åĬłæĭ¿å¤§": 6442,
      "å¿łè¯ļ": 6443,
      "éĩįè¦ģè®²è¯Ŀ": 6444,
      "éĶĤ": 6445,
      "æĦī": 6446,
      "åĨ¯": 6447,
      "çŃīå¤ļç§į": 6448,
      "åŁºç¡Ģä¸Ĭ": 6449,
      "è¾Ł": 6450,
      "å»¶ä¼¸": 6451,
      "ç¡¬åº¦": 6452,
      "åıĳæĶ¾": 6453,
      "å¸¸å§Ķä¼ļ": 6454,
      "æº¶æ¶²": 6455,
      "ç»ıæĦıéĹ´": 6456,
      "æĪĸèĢħæĺ¯": 6457,
      "çī²": 6458,
      "ç¦ıåĪ©": 6459,
      "ä½ĵç§¯": 6460,
      "åħĭæľį": 6461,
      "è¿Ĳä½ľ": 6462,
      "67": 6463,
      "å®ļäºĨ": 6464,
      "èĻ¹": 6465,
      "ç¥Ŀç¦ı": 6466,
      "èĥ½åľ¨": 6467,
      "æ¤ħ": 6468,
      "åĿļå¼º": 6469,
      "æĭĽåķĨ": 6470,
      "ä¹ĥèĩ³": 6471,
      "çº¿ä¸ĭ": 6472,
      "éª¨å¹²": 6473,
      "ç¿Ĵ": 6474,
      "æŃ¦åĻ¨": 6475,
      "ä¸įåĬ¨": 6476,
      "å¹¾": 6477,
      "éģ®": 6478,
      "ä¸´æĹ¶": 6479,
      "å°ıå¿ĥ": 6480,
      "åħīä¼ı": 6481,
      "æķ²": 6482,
      "æĴĴ": 6483,
      "çĶ¨ä½ľ": 6484,
      "åĻ¨æ¢°": 6485,
      "å¾®éĩı": 6486,
      "å¢ŀè¿Ľ": 6487,
      "éŁµ": 6488,
      "çĶ»éĿ¢": 6489,
      "çłĶåĪ¶": 6490,
      "èħĲè´¥": 6491,
      "âĢĿ;": 6492,
      "æľĢæĹ©": 6493,
      "æĳ©æĵ¦": 6494,
      "å°Ĩç»§ç»Ń": 6495,
      "åİļåº¦": 6496,
      "é«ĺåº¦éĩįè§Ĩ": 6497,
      "ä½ĵè´¨": 6498,
      "æĤĶ": 6499,
      "åĲĦå¤§": 6500,
      "è¾ĥå¤§çļĦ": 6501,
      "å®īåħ¨æĢ§": 6502,
      "åıĳçĥŃ": 6503,
      "éĵŃ": 6504,
      "åĽĽå·Ŀçľģ": 6505,
      "DP": 6506,
      "éĢ¢": 6507,
      "ä¸İæŃ¤åĲĮæĹ¶": 6508,
      "é«ĺéĵģ": 6509,
      "çİ¯å¢ĥä¿ĿæĬ¤": 6510,
      "è¡¥åģ¿": 6511,
      "ä¸»è¦ģæľī": 6512,
      "éĢ¾": 6513,
      "æīĳ": 6514,
      "èĬĤæĹ¥": 6515,
      "ä¾µæĿĥ": 6516,
      "çļĦç¬¬ä¸Ģ": 6517,
      "æŀ£": 6518,
      "Ġ2": 6519,
      "ç´ļ": 6520,
      "éļĻ": 6521,
      "åĴ¸": 6522,
      "ç»Ħç»ĩçļĦ": 6523,
      "éĢ¸": 6524,
      "éĥ½æ²¡æľī": 6525,
      "å°ıåŀĭ": 6526,
      "çĶµç«Ļ": 6527,
      "çī©ä¸ļ": 6528,
      "ç»ıæµİçļĦ": 6529,
      "å¦Ĥæŀľæĺ¯": 6530,
      "é¡½": 6531,
      "å°ĳçļĦ": 6532,
      "äºĨä¸ŃåĽ½": 6533,
      "éĤ£å°±æĺ¯": 6534,
      "å·¾": 6535,
      "é»Ħæ²³": 6536,
      "çĪ±å¿ĥ": 6537,
      "ç»ıéĶĢ": 6538,
      "å¹´è½»äºº": 6539,
      "åĲĦéĥ¨éĹ¨": 6540,
      "çĻĮçĹĩ": 6541,
      "éĺ³å¸Ĥ": 6542,
      "it": 6543,
      "æĢ»è£ģ": 6544,
      "å¼Ģå¹ķ": 6545,
      "å®ļä¹ī": 6546,
      "èĪĮ": 6547,
      "åĬ³åĬ¨èĢħ": 6548,
      "å®ĩå®Ļ": 6549,
      "èĤļ": 6550,
      "æĦıå¿Ĺ": 6551,
      "åĬ¡å®ŀ": 6552,
      "åºŀ": 6553,
      "åįĹæĸ¹": 6554,
      "å°ļæľª": 6555,
      "åĨ³å¿ĥ": 6556,
      "æĢĿæĥ³æĶ¿æ²»": 6557,
      "âĢĿ(": 6558,
      "æ»¿": 6559,
      "ç¼ºéĻ·": 6560,
      "ä¸ĬåįĬå¹´": 6561,
      "æĪĲåŀĭ": 6562,
      "çĶµæµģ": 6563,
      "äº«æľī": 6564,
      "åĬĩ": 6565,
      "54": 6566,
      "800": 6567,
      "çĶµåİĭ": 6568,
      "éķ¿æ²Ļ": 6569,
      "å¼ºçĥĪ": 6570,
      "å¥³å£«": 6571,
      "åħ³éĹŃ": 6572,
      "å«©": 6573,
      "èĻļæĭŁ": 6574,
      "éŁ¿": 6575,
      "ä¸ĭåĪĹ": 6576,
      "è¿Ļä¸¤": 6577,
      "éļĬ": 6578,
      "æ¨¡åħ·": 6579,
      "è®°è½½": 6580,
      "ä¸įåºĶ": 6581,
      "åı¦ä¸Ģä¸ª": 6582,
      "01": 6583,
      "çļĦåĬŁèĥ½": 6584,
      "æ´»åĬ¨ä¸Ń": 6585,
      "çªĿ": 6586,
      "èģļéĽĨ": 6587,
      "ä»¥æŃ¤": 6588,
      "æĹ¢çĦ¶": 6589,
      "æ¸¯æ¾³": 6590,
      "æĿĤå¿Ĺ": 6591,
      "ç´§æĢ¥": 6592,
      "æĻķ": 6593,
      "èĪĨ": 6594,
      "çļĦä¿¡æģ¯": 6595,
      "æĶ¾å¿ĥ": 6596,
      "çļĦé«ĺåº¦": 6597,
      "ä¸įéĢĤ": 6598,
      "ä¸Ģçīĩ": 6599,
      "äººä¸İ": 6600,
      "è½¬è®©": 6601,
      "åĸ»": 6602,
      "èŃ¦æĸ¹": 6603,
      "æª¢": 6604,
      "å¸¸æĢģ": 6605,
      "åħ»çĶŁ": 6606,
      "ä¸Ģè¾¹": 6607,
      "ç¦»å©ļ": 6608,
      "ä¸įä½ı": 6609,
      "å¹¿éĺĶ": 6610,
      "æ¥µ": 6611,
      "ä¼ļå½±åĵį": 6612,
      "æºĸ": 6613,
      "æģ¼": 6614,
      "èĥļèĥİ": 6615,
      "èĦĬ": 6616,
      "åħ¬äº¤": 6617,
      "äºĨå¾Īå¤ļ": 6618,
      "çº¿çļĦ": 6619,
      "æ½ĺ": 6620,
      "ç½ļæ¬¾": 6621,
      "64": 6622,
      "åħ¬åħĥ": 6623,
      "el": 6624,
      "åľºçļĦ": 6625,
      "ä¹Ĳè§Ĥ": 6626,
      "åıĳå±ķåĴĮ": 6627,
      "åįģåĽĽäºĶ": 6628,
      "ä¼łè¾ĵ": 6629,
      "ä¸Ģæ®µæĹ¶éĹ´": 6630,
      "çĪĨçĤ¸": 6631,
      "ä¼ļå¯¹": 6632,
      "åĪĨæķ£": 6633,
      "å¸ĤæĶ¿": 6634,
      "å¸®æī¶": 6635,
      "å¼¹æĢ§": 6636,
      "63": 6637,
      "çĶŁæĪĲ": 6638,
      "æĤ£æľī": 6639,
      "å¼ķåħ¥": 6640,
      "å¤§èĦĳ": 6641,
      "ç²¥": 6642,
      "åı¯åľ¨": 6643,
      "ç§»æ¤į": 6644,
      "ou": 6645,
      "ç§ĳåŃ¦éĻ¢": 6646,
      "åľºä¸Ĭ": 6647,
      "ä¸Ńåľĭ": 6648,
      "åĪ©çİĩ": 6649,
      "æĳĦåħ¥": 6650,
      "çļĦåı¯èĥ½": 6651,
      "çĪ±å¥½": 6652,
      "çļĦåŃ¦çĶŁ": 6653,
      "èµĦåĬ©": 6654,
      "åľ¨ä¸įç»ıæĦıéĹ´": 6655,
      "åıįé¦Ī": 6656,
      "ä¾¿æį·": 6657,
      "2004": 6658,
      "å¾Ĺä»¥": 6659,
      "èĹĿ": 6660,
      "ç§ĺä¹¦éķ¿": 6661,
      "åĮĸåĲĪçī©": 6662,
      "ä¸īåįģ": 6663,
      "æĸ°èĥ½æºĲæ±½è½¦": 6664,
      "å¼ıçļĦ": 6665,
      "è±¡å¾ģ": 6666,
      "å¤ļäºº": 6667,
      "åıĳæī¬": 6668,
      "è½¬åĮĸä¸º": 6669,
      "ç§¯æŀģå¼Ģå±ķ": 6670,
      "çĸĳæĥĳ": 6671,
      "åĮħçļ®": 6672,
      "ç§°ä¹ĭä¸º": 6673,
      "çļĦçĹĩçĬ¶": 6674,
      "æ°Ķæ¸©": 6675,
      "å»īæĶ¿": 6676,
      "ä¼ģä¸ļåĴĮ": 6677,
      "çĭ®": 6678,
      "æ¨¡èĮĥ": 6679,
      "åĤ¨å¤ĩ": 6680,
      "):": 6681,
      "è®¤åĲĮ": 6682,
      "ç»Ļä½ł": 6683,
      "éĢĤéĩı": 6684,
      "åĨľäº§åĵģ": 6685,
      "æ¢¨": 6686,
      "çļĦå½¢å¼ı": 6687,
      "ä¼ģä¸ļåľ¨": 6688,
      "å¸ĤåľºéľĢæ±Ĥ": 6689,
      "æıĲåıĸ": 6690,
      "èĤ²äºº": 6691,
      "æĤ£èĢħåľ¨": 6692,
      "ç©´": 6693,
      "åŃ¦åĳĺ": 6694,
      "çļĦåĽ½å®¶": 6695,
      "è¿ĩæĿ¥": 6696,
      "å¼Ģè®¾": 6697,
      "èĴľ": 6698,
      "æĸ°å»º": 6699,
      "ç§ĳæĬĢæľīéĻĲåħ¬åı¸": 6700,
      "åħĶ": 6701,
      "ç¼´çº³": 6702,
      "åĽ½äº§": 6703,
      "è±«": 6704,
      "çŁŃæľŁ": 6705,
      "å®¹åĻ¨": 6706,
      "éĨĭ": 6707,
      "æľĪåºķ": 6708,
      "å°¼æĸ¯": 6709,
      "éĢ£": 6710,
      "æ°´è´¨": 6711,
      "çľŁè¯ļ": 6712,
      "è¿Ļæł·è¯´è¿ĩ": 6713,
      "ç¾İå®¹": 6714,
      "é«ĺéĢŁåħ¬è·¯": 6715,
      "ç»Īç«¯": 6716,
      "å¹´åĪĿ": 6717,
      "åĪ°ä½į": 6718,
      "åĪ¶æĪĲ": 6719,
      "åĨ¶éĩĳ": 6720,
      "åĬłåĿ¡": 6721,
      "å¢ŀå¤ļ": 6722,
      "åĲĦé¡¹å·¥ä½ľ": 6723,
      "æĿ¥è®²": 6724,
      "é¦¬": 6725,
      "ç²īä¸Ŀ": 6726,
      "åĸľçĪ±": 6727,
      "å®ĮåĸĦçļĦ": 6728,
      "çĲĨå·¥": 6729,
      "åį«æĺŁ": 6730,
      "çºłçº·": 6731,
      "å¤©çĦ¶æ°Ķ": 6732,
      "ä¸ĸçķĮçļĦ": 6733,
      "æĺ¯åı¯ä»¥": 6734,
      "æŃĮæĽ²": 6735,
      "åĬĿ": 6736,
      "2003": 6737,
      "ä»£è¡¨å¤§ä¼ļ": 6738,
      "ç©į": 6739,
      "è®©ä»ĸ": 6740,
      "åĮĸçĸĹ": 6741,
      "ĠC": 6742,
      "åĩ½": 6743,
      "è¿ĽæĶ»": 6744,
      "æĽ´å®¹æĺĵ": 6745,
      "æĪ¿éĹ´": 6746,
      "ä»¥ä¸ĭç®Ģç§°": 6747,
      "ä¸ºå®¢æĪ·æıĲä¾Ľ": 6748,
      "77": 6749,
      "çļĦé¦ĸ": 6750,
      "è¯´è¯Ŀ": 6751,
      "èĭį": 6752,
      "ä¸įè¶ħè¿ĩ": 6753,
      "ç¡¬ä»¶": 6754,
      "æĢ»éĩı": 6755,
      "é¢ĳçİĩ": 6756,
      "è¾ĥå¥½çļĦ": 6757,
      "ä¹¡éķĩ": 6758,
      "é¾Ł": 6759,
      "åīįåĪĹèħº": 6760,
      "69": 6761,
      "æľĢå¤ļ": 6762,
      "æ¯Ľæ³½": 6763,
      "æĸ·": 6764,
      "åĮĹæĸ¹": 6765,
      "çĦ¦èĻĳ": 6766,
      "æĪ°": 6767,
      "çļĦéĤ£": 6768,
      "çľĭåĩº": 6769,
      "æ¯«ç±³": 6770,
      "è¿ĻæĹ¶": 6771,
      "çĽ¸åħ³éĥ¨éĹ¨": 6772,
      "ç¨³å®ļçļĦ": 6773,
      "å±ķçİ°åĩº": 6774,
      "æİ¥å¾ħ": 6775,
      "èģĶåĲĪåĽ½": 6776,
      "Ġ3": 6777,
      "ä»¥ä¾¿": 6778,
      "çļĦèĢģ": 6779,
      "ä¹ĭå¤Ħ": 6780,
      "ç²¾åĬĽ": 6781,
      "æĲºæīĭ": 6782,
      "æ¶²åİĭ": 6783,
      "æµĻæ±Łçľģ": 6784,
      "æ²¸": 6785,
      "æľ¬æĸĩ": 6786,
      "æĪ·å¤ĸ": 6787,
      "æŁ¥è¯¢": 6788,
      "åĿĿ": 6789,
      "éĶħçĤī": 6790,
      "åľ¨ä¸įç»ıæĦıéĹ´è¿Ļæł·è¯´è¿ĩ": 6791,
      "ä¾ł": 6792,
      "æ¯Ľæ³½ä¸ľ": 6793,
      "çŃīå·¥ä½ľ": 6794,
      "èĥĮåĲİ": 6795,
      "åĩºçİ°åľ¨": 6796,
      "æľīåĪ©": 6797,
      "çīĽå¥¶": 6798,
      "çļĦç»ĵæŀľ": 6799,
      "åĮĸå¦Ĩ": 6800,
      "çļĦæķ°æį®": 6801,
      "æ¯Ķäºļ": 6802,
      "ä¸»å¯¼": 6803,
      "çŃ¾çº¦": 6804,
      "æ³ģ": 6805,
      "èĥ½åĲ¦": 6806,
      "åĽŀå¿Ĩ": 6807,
      "å¤§å±Ģ": 6808,
      "æĸĮ": 6809,
      "ä»Ģéº¼": 6810,
      "éĥ½çŁ¥éģĵ": 6811,
      "æľ¨æĿĲ": 6812,
      "å¸¸å§Ķ": 6813,
      "éĩĩéĽĨ": 6814,
      "å¦ĩç§ĳ": 6815,
      "ä½İç¢³": 6816,
      "çĶ¨åľ°": 6817,
      "é£ŀè¡Į": 6818,
      "ä»¥ä¸Ĭå°±æĺ¯": 6819,
      "ji": 6820,
      "ä¸Ńåħ±ä¸Ńå¤®": 6821,
      "èī°èĭ¦": 6822,
      "ç²¾ç»Ĩ": 6823,
      "èĤłéģĵ": 6824,
      "çİ²": 6825,
      "ä¸Ĭçº§": 6826,
      "éłĺ": 6827,
      "çħ§é¡¾": 6828,
      "æ»©": 6829,
      "æ°ĳä¼Ĺ": 6830,
      "é¸Ń": 6831,
      "çļĦäººåĳĺ": 6832,
      "éľŀ": 6833,
      "æ´Ĵ": 6834,
      "åľ¨æĸ°": 6835,
      "å³»": 6836,
      "ç´°": 6837,
      "çİ¯å¢ĥçļĦ": 6838,
      "å¯¹è¯Ŀ": 6839,
      "ç¾©": 6840,
      "åĬŁå¤«": 6841,
      "çļĦçİ°è±¡": 6842,
      "åĿĳ": 6843,
      "è¾¾åĪ°äºĨ": 6844,
      "è¥¿èĹı": 6845,
      "äººæ°ĳçļĦ": 6846,
      "åĮ»éĻ¢çļĦ": 6847,
      "æŃ¥ä¼Ĳ": 6848,
      "å®ŀè´¨": 6849,
      "åľºåľ°": 6850,
      "åįĩé«ĺ": 6851,
      "æıĲç¤º": 6852,
      "èİİ": 6853,
      "çİĩåħĪ": 6854,
      "çļĦåħ¨": 6855,
      "æĪĳå°±": 6856,
      "è¶ĬæĿ¥è¶Ĭå¤ļ": 6857,
      "åįłæľī": 6858,
      "çī¹å®ļ": 6859,
      "æŀĹä¸ļ": 6860,
      "åĨħèĨľ": 6861,
      "åĪ¶èį¯": 6862,
      "è®°å¾Ĺ": 6863,
      "å¾®åįļ": 6864,
      "çĮ´": 6865,
      "åĪĨåĪ«ä¸º": 6866,
      "äº§åĢ¼": 6867,
      "éļĽ": 6868,
      "è¯´è¿ĩä¸Ģåı¥": 6869,
      "è¸¢": 6870,
      "åĩ¶": 6871,
      "éĥ½å¸Ĥ": 6872,
      "å«ģ": 6873,
      "ä¸įåı¯èĥ½": 6874,
      "è§Ĩéĩİ": 6875,
      "æĿ¿çļĦ": 6876,
      "ĠS": 6877,
      "åįłæį®": 6878,
      "æľ¬åľ°": 6879,
      "ç¦½": 6880,
      "æľºåĬ¨": 6881,
      "è¡į": 6882,
      "äºĨæĪĳçļĦ": 6883,
      "ç³»æķ°": 6884,
      "éĿĻçĶµ": 6885,
      "åıĻ": 6886,
      "åĿļå®Ī": 6887,
      "èıĬ": 6888,
      "å¢ŀåĢ¼ç¨İ": 6889,
      "å¤ļé¡¹": 6890,
      "éľĢè¦ģçļĦ": 6891,
      "é¡¯": 6892,
      "è½¦çļĦ": 6893,
      "ä¸ĭä¸ĢæŃ¥": 6894,
      "æħĪåĸĦ": 6895,
      "çļĩé©¬": 6896,
      "ä¸įåĲĥ": 6897,
      "ä¿¡èªī": 6898,
      "çģµéŃĤ": 6899,
      "è¡¨çİ°ä¸º": 6900,
      "äº¤éĢļè¿Ĳè¾ĵ": 6901,
      "ä¸ŃçŃī": 6902,
      "å¢ĥå¤ĸ": 6903,
      "è´Ńçī©": 6904,
      "ä¸Ńæĸĩ": 6905,
      "ä¹Łå°±æĺ¯è¯´": 6906,
      "åĴ¬": 6907,
      "ç¾İå¥½çļĦ": 6908,
      "åĸī": 6909,
      "æī©å±ķ": 6910,
      "çį²": 6911,
      "æ³¡æ²«": 6912,
      "æĪĳæĺ¯": 6913,
      "ä¾ĿæĹ§": 6914,
      "çļĦæĶ¿æ²»": 6915,
      "åĴĮç®¡çĲĨ": 6916,
      "åħ¬åı¸åľ¨": 6917,
      "æŃ¥éª¤": 6918,
      "èī°éļ¾": 6919,
      "æī¿è®¤": 6920,
      "æĪ¶": 6921,
      "é»ĳé¾Ļæ±Ł": 6922,
      "æłĭ": 6923,
      "æ¨¡æĭŁ": 6924,
      "è¯ĦéĢī": 6925,
      "å®ŀäºĭ": 6926,
      "æİ¢è®¨": 6927,
      "éĥ½å¾Ī": 6928,
      "éĽ¶éĥ¨ä»¶": 6929,
      "çļĦç»ıèĲ¥": 6930,
      "çļĦäººæīį": 6931,
      "æ§ĭ": 6932,
      "åħ·æľīèī¯å¥½çļĦ": 6933,
      "èĲ§": 6934,
      "å¢ĥåĨħ": 6935,
      "çĶŁæĦı": 6936,
      "éĺ²çĸ«": 6937,
      "æ±¡æŁĵçī©": 6938,
      "æĪĲåĬŁçļĦ": 6939,
      "çĮľ": 6940,
      "çĶ¢åĵģ": 6941,
      "æĹ¶åħī": 6942,
      "èĥ½åĬĽçļĦ": 6943,
      "å¤§è¿ŀ": 6944,
      "çĢ": 6945,
      "å¤ĦçļĦ": 6946,
      "ä¸Ļçĥ¯": 6947,
      "æĺ¯è¦ģ": 6948,
      "æľīä¸Ģå®ļçļĦ": 6949,
      "ä¾¦": 6950,
      "åıĸå¾ĹçļĦ": 6951,
      "å¼ĢåĪĽ": 6952,
      "æŁĲæŁĲ": 6953,
      "æĿĥåĬĽ": 6954,
      "åģľè½¦": 6955,
      "èĢĲèħĲèļĢ": 6956,
      "å¥¥è¿Ĳä¼ļ": 6957,
      "æĹłéľĢ": 6958,
      "åħ»æĪĲ": 6959,
      "åĤ¨åŃĺ": 6960,
      "å¼ºåĬ²": 6961,
      "åĽºä½ĵ": 6962,
      "ç§ĺå¯Ĩ": 6963,
      "æĺ¯æĪĳåĽ½": 6964,
      "ä¼łè¾¾": 6965,
      "æ¯ĶåĪĨ": 6966,
      "çļ®èĤ¤çĹħ": 6967,
      "èĢĥèĻĳåĪ°": 6968,
      "å¯¹æĪĳ": 6969,
      "è§ĴéĢĲ": 6970,
      "èŃĺ": 6971,
      "éľĢè¦ģæ³¨æĦı": 6972,
      "åľ¨å®¶": 6973,
      "é«ĵ": 6974,
      "ç´§ç´§": 6975,
      "çĲĨè´¢": 6976,
      "æīĭè¡¨": 6977,
      "ä»İæĿ¥": 6978,
      "åĽŀå½Ĵ": 6979,
      "çĶ·å¥³": 6980,
      "æİ¥çĿĢ": 6981,
      "å¹²æī°": 6982,
      "éĢĻæ¨£": 6983,
      "å®³æĢķ": 6984,
      "åŁİå¸ĤçļĦ": 6985,
      "æľ¬åľŁ": 6986,
      "å°ıåº·": 6987,
      "ç±»çļĦ": 6988,
      "ç»ĦæĪĲéĥ¨åĪĨ": 6989,
      "èģ·": 6990,
      "çļĦåĬŁæķĪ": 6991,
      "å®ıè§Ĥ": 6992,
      "çİ¯æ°§": 6993,
      "åįİä¸º": 6994,
      "èºģ": 6995,
      "ä½łåı¯ä»¥": 6996,
      "åľ¨åĮĹäº¬": 6997,
      "æĬĸ": 6998,
      "è½¦ç«Ļ": 6999,
      "çĶ¨çĶµ": 7000,
      "æ¸Ľ": 7001,
      "ç»Ļå¤§å®¶": 7002,
      "è¿ľç¨ĭ": 7003,
      "çĥŃçĪ±": 7004,
      "èĨĢ": 7005,
      "ç»Ļäºº": 7006,
      "ä¸įæĩĪ": 7007,
      "ç¥¨æĪ¿": 7008,
      "å½ĵäºĭäºº": 7009,
      "èģ²": 7010,
      "åĲ¬åıĸ": 7011,
      "åıĹä¼¤": 7012,
      "æ³¨å°Ħ": 7013,
      "äºĨè§£åĪ°": 7014,
      "éĽķå¡ĳ": 7015,
      "å¯¼å¸Ī": 7016,
      "æĪĳä»¬å°Ĩ": 7017,
      "âĺ": 7018,
      "åĩłå¤©": 7019,
      "èĲ½åĲİ": 7020,
      "è³½": 7021,
      "èŃ¦å¯Ł": 7022,
      "ç¬¬åħ«": 7023,
      "åĽŀæĿ¥": 7024,
      "ä¿¡æģ¯æĬĢæľ¯": 7025,
      "æĹĹä¸ĭ": 7026,
      "çĭ±": 7027,
      "å¤ł": 7028,
      "è°¨æħİ": 7029,
      "62": 7030,
      "è§£è¯»": 7031,
      "ç¿°": 7032,
      "åĪĨæķ°": 7033,
      "äºīè®®": 7034,
      "å¾ĹäºĨ": 7035,
      "å¢ŀå¤§": 7036,
      "æ´»è·ĥ": 7037,
      "åı¯è¾¾": 7038,
      "åħ¬ç¤º": 7039,
      "å£®å¤§": 7040,
      "é©Ĺ": 7041,
      "åľ¨æĪĳ": 7042,
      "åħ¨éĿ¢ä»İä¸¥": 7043,
      "åİŁå§ĭ": 7044,
      "ç´łåħ»": 7045,
      "æ±ĩæĬ¥": 7046,
      "åĽ¾ä¹¦é¦Ĩ": 7047,
      "æ³ķäºº": 7048,
      "è´µçļĦ": 7049,
      "æ¼Ĥäº®": 7050,
      "ç¿©": 7051,
      "ä¸ºä¼ģä¸ļ": 7052,
      "åħ¬æŃ£": 7053,
      "ä¸Ńå±±": 7054,
      "çķĻåŃ¦": 7055,
      "èİī": 7056,
      "è¼ķ": 7057,
      "ä¸ľéĥ¨": 7058,
      "å°ģéĹŃ": 7059,
      "ä¸īç§į": 7060,
      "ä¸įæķ¢": 7061,
      "èł": 7062,
      "åıĳå¸ĥçļĦ": 7063,
      "æĪĳä»¬å°±": 7064,
      "çªĦ": 7065,
      "æħĭ": 7066,
      "åĬ³åĬ¡": 7067,
      "å¦Ĭ": 7068,
      "çŃīè¡Įä¸ļ": 7069,
      "æľºçĶµ": 7070,
      "æī©å¼ł": 7071,
      "èªĵ": 7072,
      "æīģ": 7073,
      "åħ¬æĸ¤": 7074,
      "çĽ¸åıį": 7075,
      "åĸĬ": 7076,
      "ä¸ĢæĶ¯": 7077,
      "éļ¨": 7078,
      "é©¬ä¸Ĭ": 7079,
      "ic": 7080,
      "æĬĳéĥģ": 7081,
      "åįĹåĮĹ": 7082,
      "é¦ĸæī¹": 7083,
      "è¿İæĿ¥": 7084,
      "é»Ħèī²": 7085,
      "åĪ°æĿ¥": 7086,
      "éĵĿåĲĪéĩĳ": 7087,
      "çĶµç£ģ": 7088,
      "ä»ĭç»įäºĨ": 7089,
      "è®©ä»ĸä»¬": 7090,
      "çŃ¾ç½²": 7091,
      "æīĢä»¥åľ¨": 7092,
      "PV": 7093,
      "å¨ĥ": 7094,
      "ç¯®çĲĥ": 7095,
      "åĲĪéĢĤçļĦ": 7096,
      "æłĩåĩĨçļĦ": 7097,
      "è¡¬": 7098,
      "çĸĹæ³ķ": 7099,
      "å®ŀéĻħæĥħåĨµ": 7100,
      "æĸĩçĮ®": 7101,
      "é«ĺå³°": 7102,
      "åĽŀæĬ¥": 7103,
      "èĬĤå¥ı": 7104,
      "æĽ¼èģĶ": 7105,
      "çļĦæĢģåº¦": 7106,
      "åħ±èµ¢": 7107,
      "çļĦèĬ±": 7108,
      "ä»ĭè´¨": 7109,
      "ĠçļĦ": 7110,
      "æŃ²": 7111,
      "èĢģåĮĸ": 7112,
      "è¾ĥå¤ļ": 7113,
      "å¤ĩæ¡Ī": 7114,
      "å¨ł": 7115,
      "éķģ": 7116,
      "æ¬§çĽŁ": 7117,
      "éĻĢ": 7118,
      "è¿ĺå°Ĩ": 7119,
      "ä¼ģæ¥Ń": 7120,
      "ãĢįãĢĤ": 7121,
      "æĲħæĭĮ": 7122,
      "âĢĿ,âĢľ": 7123,
      "å¦Ĭå¨ł": 7124,
      "æĢ§å¼º": 7125,
      "åĭĩäºİ": 7126,
      "å®ĺåĳĺ": 7127,
      "æľīåħ³è§Ħå®ļ": 7128,
      "åĻªéŁ³": 7129,
      "ä¾¿å®ľ": 7130,
      "äººåĿĩ": 7131,
      "å¸ĪèµĦ": 7132,
      "è¯·æ±Ĥ": 7133,
      "åľ¨è¿Ļç§į": 7134,
      "åĵªä¸ª": 7135,
      "åŃ¦ä¹łæķĻèĤ²": 7136,
      "å»ºçŃĳéĿ¢ç§¯": 7137,
      "ä¸¤å¤§": 7138,
      "ong": 7139,
      "è½½ä½ĵ": 7140,
      "å·´é»İ": 7141,
      "è¯´è¿ĩè¿Ļæł·": 7142,
      "ä»ĬæĹ¥": 7143,
      "è®¸åı¯è¯ģ": 7144,
      "å±¡": 7145,
      "ä¸ºæŃ¢": 7146,
      "çļĦæķĻèĤ²": 7147,
      "çľģå¸Ĥ": 7148,
      "çļĦä¼ĺåĬ¿": 7149,
      "æĪĳä»¬å¿ħé¡»": 7150,
      "æ¤İ": 7151,
      "éĢĿ": 7152,
      "çļĦéķ¿": 7153,
      "åĪĹåħ¥": 7154,
      "åľ¨ä¸Ģ": 7155,
      "å¼Ģå¿ĥ": 7156,
      "åĪ«çļĦ": 7157,
      "åıĪæľī": 7158,
      "çī¢åĽº": 7159,
      "å¾®éĩıåħĥç´ł": 7160,
      "æĬ¤æłı": 7161,
      "åĲĪå¹¶": 7162,
      "çİīç±³": 7163,
      "æ±ª": 7164,
      "72": 7165,
      "æľŁè´§": 7166,
      "æļ¨": 7167,
      "æĹ±": 7168,
      "çĶµç½ĳ": 7169,
      "åºĨç¥Ŀ": 7170,
      "åıĳçĶŁçļĦ": 7171,
      "æµİåįĹ": 7172,
      "ä»ªè¡¨": 7173,
      "å¢ĥçķĮ": 7174,
      "æµĩ": 7175,
      "æ¯Ķéĩį": 7176,
      "æłĵ": 7177,
      "æ³¢åĬ¨": 7178,
      "æľ¬æĿ¥": 7179,
      "é«ĺæ°´å¹³": 7180,
      "åħ´å¥ĭ": 7181,
      "å¤§è§Ħæ¨¡": 7182,
      "èĭ¥å¹²": 7183,
      "æĹ¬": 7184,
      "äº§çĶŁäºĨ": 7185,
      "å¼Ģå·¥": 7186,
      "äºĶä¸ª": 7187,
      "æ³°åĽ½": 7188,
      "éłĲ": 7189,
      "éľľ": 7190,
      "æĹ¨åľ¨": 7191,
      "78": 7192,
      "æĬ¬": 7193,
      "åĲŀ": 7194,
      "åŀ¢": 7195,
      "ä¸įåıĺ": 7196,
      "è·¨å¢ĥ": 7197,
      "çļĦå°±æĺ¯": 7198,
      "éĻĮ": 7199,
      "åħļåĴĮåĽ½å®¶": 7200,
      "æĿ¿åĿĹ": 7201,
      "æĸ°åĬłåĿ¡": 7202,
      "åĢŁåĬ©": 7203,
      "è¿Ļä¼¼ä¹İ": 7204,
      "è¾ĥå¼ºçļĦ": 7205,
      "æ¸¯åı£": 7206,
      "ç§»æ°ĳ": 7207,
      "èĦ±è´«æĶ»åĿļ": 7208,
      "å¹³çŃī": 7209,
      "çĶŁäº§ç»ıèĲ¥": 7210,
      "ç´ħ": 7211,
      "æŀļ": 7212,
      "ä¸»è§Ĵ": 7213,
      "å¤ĸç§ĳ": 7214,
      "æĺĨæĺİ": 7215,
      "åįłåľ°éĿ¢ç§¯": 7216,
      "åıĳå°Ħ": 7217,
      "æºĲäºİ": 7218,
      "çĹħåıĺ": 7219,
      "æľĢåĪĿ": 7220,
      "åıĪæĺ¯": 7221,
      "ä¸Ĭåİ»": 7222,
      "ç»ĵè®º": 7223,
      "å¤įåıĳ": 7224,
      "å°½åı¯èĥ½": 7225,
      "çļĦå»ºè®¾": 7226,
      "ç»ĻæĪĳ": 7227,
      "åĲ¬åĪ°": 7228,
      "02": 7229,
      "ä¸Ńå°ıä¼ģä¸ļ": 7230,
      "ä¹Ĵ": 7231,
      "åīįæ²¿": 7232,
      "è¡¥åĬ©": 7233,
      "éĵħ": 7234,
      "çĶ¨å¿ĥ": 7235,
      "ä¹³èħº": 7236,
      "éļ§": 7237,
      "å½±éŁ¿": 7238,
      "æ¢³": 7239,
      "æ¨¡åĿĹ": 7240,
      "åĨľèį¯": 7241,
      "ä¸įåĩº": 7242,
      "æİĴéĻ¤": 7243,
      "æĬĢæľ¯åĪĽæĸ°": 7244,
      "ä½ľçī©": 7245,
      "é¢Ĩå¯¼çıŃåŃĲ": 7246,
      "éģĤ": 7247,
      "å¿«éĢĴ": 7248,
      "åĬłä»¥": 7249,
      "æľīæĹ¶åĢĻ": 7250,
      "åĩłåįģ": 7251,
      "æİ©": 7252,
      "åįķåħĥ": 7253,
      "åĤ¬åĮĸ": 7254,
      "ç»¼åĲĪæĢ§": 7255,
      "ä»ĸæĺ¯": 7256,
      "ä¸įå¿ĺåĪĿå¿ĥ": 7257,
      "èĥ½èĢĹ": 7258,
      "è¿Ĳè½¬": 7259,
      "éĻ·åħ¥": 7260,
      "ä¸įåŃķ": 7261,
      "è¡Ģç³ĸ": 7262,
      "æŃ¦è£ħ": 7263,
      "CO": 7264,
      "éĩĳèŀįæľºæŀĦ": 7265,
      "çıįæĥľ": 7266,
      "æĪĳåħ¬åı¸": 7267,
      "çļĦæĸĩåĮĸ": 7268,
      "éħ®": 7269,
      "è¾ĥå¥½": 7270,
      "èĢĥéªĮ": 7271,
      "èĬ¯çīĩ": 7272,
      "è½¬åŀĭåįĩçº§": 7273,
      "åħ¨æ°ĳ": 7274,
      "è¡¨å½°": 7275,
      "å°¼äºļ": 7276,
      "ä¸ºä½ķ": 7277,
      "éħįéĢģ": 7278,
      "ä½ĵéĩį": 7279,
      "æľīçĽĬ": 7280,
      "äººäºĭ": 7281,
      "åĩıéĢŁ": 7282,
      "å½ĵä»Ĭ": 7283,
      "ä¿®è®¢": 7284,
      "çİĩä¸º": 7285,
      "é¦¨": 7286,
      "ä¸¥èĤĥ": 7287,
      "è¿Ļä¸įç¦ģ": 7288,
      "ç»ĺçĶ»": 7289,
      "çºªæ£Ģ": 7290,
      "ä¸»è¦ģçĶ¨äºİ": 7291,
      "2002": 7292,
      "æ¸¸æ³³": 7293,
      "è¦ģæ±ĤçļĦ": 7294,
      "æĺ¯ä¸ºäºĨ": 7295,
      "å°±ç®Ĺ": 7296,
      "ç®¡æİ§": 7297,
      "ISO": 7298,
      "åįķä¸Ģ": 7299,
      "ç¤¾æľĥ": 7300,
      "çīµå¤´": 7301,
      "çĿ¡è§ī": 7302,
      "åĪ®": 7303,
      "åĿĩè¡¡": 7304,
      "å®īåħ¨çļĦ": 7305,
      "æī¶æĮģ": 7306,
      "ä¸ĳ": 7307,
      "åħħçĶµ": 7308,
      "è´¢ç»ı": 7309,
      "èĴ¸æ±½": 7310,
      "çİ°éĩĳ": 7311,
      "çķĻåľ¨": 7312,
      "NA": 7313,
      "èİŀ": 7314,
      "æł·åŃĲ": 7315,
      "çģ«ç®Ń": 7316,
      "é¡¾éĹ®": 7317,
      "ä¹¦çĶ»": 7318,
      "éĻ¤æŃ¤": 7319,
      "ä¸įæĸŃçļĦ": 7320,
      "å¤±ä¸ļ": 7321,
      "ç´Ĭ": 7322,
      "ä»½é¢Ŀ": 7323,
      "ä¸įä¸Ĭ": 7324,
      "è´¢è¿Ĳ": 7325,
      "åºķçº¿": 7326,
      "çĽĪåĪ©": 7327,
      "ç¡Ŀ": 7328,
      "ä¸ĢçŃīå¥ĸ": 7329,
      "åı¯æĮģç»Ńåıĳå±ķ": 7330,
      "åģļäºĭ": 7331,
      "å±±æ°´": 7332,
      "éĽĨåĽ¢åħ¬åı¸": 7333,
      "ä¸įå¤ª": 7334,
      "ä»ħæľī": 7335,
      "ä¹Łä¸įèĥ½": 7336,
      "è§Ĵåº¦æĿ¥çľĭ": 7337,
      "çĥ¹": 7338,
      "æļ´éľ²": 7339,
      "å¾ĴåĪĳ": 7340,
      "åħīæĺİ": 7341,
      "èĴĭ": 7342,
      "å¡ĳéĢł": 7343,
      "åħ±è¯Ĩ": 7344,
      "è®¢åįķ": 7345,
      "å¿ĺè®°": 7346,
      "æŃ§": 7347,
      "æ¶Ĥå±Ĥ": 7348,
      "çĮİ": 7349,
      "æĺı": 7350,
      "ä»Ģä¹Īæĺ¯": 7351,
      "æħİéĩįçļĦ": 7352,
      "æĹ¥ä¸ĬåįĪ": 7353,
      "çĽ¼": 7354,
      "åħ¨ç¨ĭ": 7355,
      "çīº": 7356,
      "ä½łä¼ļ": 7357,
      "å¸Ĩ": 7358,
      "å±±åĮº": 7359,
      "éļıæĦı": 7360,
      "åİ¦éĹ¨": 7361,
      "çº¦ä¸º": 7362,
      "ä¸ºæł¸å¿ĥçļĦ": 7363,
      "æİĴæŁ¥": 7364,
      "åıĭå¥½": 7365,
      "æĹĭè½¬": 7366,
      "å¯»æ±Ĥ": 7367,
      "ä¸ĢçĽ´åľ¨": 7368,
      "æĴ°": 7369,
      "é¢ĳç¹ģ": 7370,
      "æĸ°ä¸Ģ": 7371,
      "ä¾¿äºİ": 7372,
      "é»ĥ": 7373,
      "èģªæĺİ": 7374,
      "ç²¾åŃĲ": 7375,
      "æ¸ħéĻ¤": 7376,
      "éļª": 7377,
      "éĭ¼": 7378,
      "è°¦": 7379,
      "ä¸įå½ĵ": 7380,
      "åĲįè¨Ģ": 7381,
      "II": 7382,
      "å¾ĪçŁŃ": 7383,
      "æİĴåĩº": 7384,
      "é¸¡èĽĭ": 7385,
      "æĹºçĽĽ": 7386,
      "ç¿ł": 7387,
      "åīįæľŁ": 7388,
      "çļĦæ°Ķ": 7389,
      "çīºçī²": 7390,
      "æĪĲå¹´äºº": 7391,
      "æ¸ħåįİ": 7392,
      "æĭ¿åĪ°": 7393,
      "å½°æĺ¾": 7394,
      "æĲºå¸¦": 7395,
      "61": 7396,
      "çŃīæĸ¹å¼ı": 7397,
      "åľĨå½¢": 7398,
      "åıĬä»¥ä¸Ĭ": 7399,
      "ä¼Łå¤§çļĦ": 7400,
      "ä¸ºä¸ŃåĽ½": 7401,
      "éĺ¿éĩĮ": 7402,
      "åįģä¸ĥ": 7403,
      "éĴ¢æĿ¿": 7404,
      "éĢĻäºĽ": 7405,
      "æ®ĭçĸ¾": 7406,
      "è¯Ńæĸĩ": 7407,
      "å¤©åľ°": 7408,
      "èģĶåĬ¨": 7409,
      "éķĢéĶĮ": 7410,
      "ä¸Ģéĥ¨åĪĨ": 7411,
      "è½¦åŀĭ": 7412,
      "æıĲåĩºçļĦ": 7413,
      "è¿½ç©¶": 7414,
      "æ²»æĦĪ": 7415,
      "ä¸»å¼ł": 7416,
      "çĲ³": 7417,
      "çĸ®": 7418,
      "æĿ¥çľĭçľĭ": 7419,
      "æ²Īéĺ³": 7420,
      "st": 7421,
      "éĢĤå½ĵçļĦ": 7422,
      "å¹¶æľª": 7423,
      "å¿ħéľĢ": 7424,
      "ä¸Ģäºº": 7425,
      "æĢģåĬ¿": 7426,
      "çļĦä¸ĢåĪĩ": 7427,
      "è¿Ľåĩºåı£": 7428,
      "å¯Įè£ķ": 7429,
      "äº¤å¾Ģ": 7430,
      "èĨ¨èĥĢ": 7431,
      "æ¶īå«Į": 7432,
      "ç§ĳçĽ®": 7433,
      "ç»Ŀç¼ĺ": 7434,
      "éªĮæĶ¶": 7435,
      "ç¼©çŁŃ": 7436,
      "åĮĸåĴĮ": 7437,
      "æ´½": 7438,
      "çļĦç»Ħç»ĩ": 7439,
      "åīĸ": 7440,
      "ä¼ģä¸ļå®¶": 7441,
      "éĿ¢ä¸Ĭ": 7442,
      "çļĦä¸ĸçķĮ": 7443,
      "ç¡«éħ¸": 7444,
      "èµ·éĩįæľº": 7445,
      "å¤ļäºĨ": 7446,
      "æıĲä¾ĽçļĦ": 7447,
      "æĪĲåĵģ": 7448,
      "æ¸Ĳæ¸Ĳ": 7449,
      "ä¸ºåŁºç¡Ģ": 7450,
      "ĈĈ": 7451,
      "åı£ç¢ĳ": 7452,
      "ç¦»ä¸įå¼Ģ": 7453,
      "ä½Ĳ": 7454,
      "åī¥": 7455,
      "æŃ£å¸¸çļĦ": 7456,
      "èĩ³ä¸Ĭ": 7457,
      "æĹ¥æĬ¥": 7458,
      "æľŁå¾ĴåĪĳ": 7459,
      "æľīä¸ĢäºĽ": 7460,
      "ä¸Ńæ¯Ĵ": 7461,
      "å½¢æĪĲçļĦ": 7462,
      "PE": 7463,
      "å·²ç»ıæĪĲä¸º": 7464,
      "æ³¨æĦıäºĭé¡¹": 7465,
      "03": 7466,
      "æ¸¬": 7467,
      "éĺģ": 7468,
      "èĪī": 7469,
      "åĨ³è®®": 7470,
      "å«Įçĸĳ": 7471,
      "çļĦåĩºçİ°": 7472,
      "æĿı": 7473,
      "è¶ħå£°æ³¢": 7474,
      "æľ¬ç«Ļ": 7475,
      "çħİ": 7476,
      "è§£åĨ³éĹ®é¢ĺ": 7477,
      "æĹ¥ä¸ĭåįĪ": 7478,
      "åı¯ä»¥æł¹æį®": 7479,
      "éĢĤå®ľ": 7480,
      "èµ°åĩº": 7481,
      "ä½ľæĪĺ": 7482,
      "ç®¡çĲĨåĴĮ": 7483,
      "è°ĭåĪĴ": 7484,
      "å·´èĲ¨": 7485,
      "åº¦åĴĮ": 7486,
      "çĭł": 7487,
      "åĵĪå°Ķ": 7488,
      "å¥ĭè¿Ľ": 7489,
      "è·¨è¶Ĭ": 7490,
      "éĩįç»Ħ": 7491,
      "çĸ¯": 7492,
      "çĪĨåıĳ": 7493,
      "900": 7494,
      "åį´æĺ¯": 7495,
      "å¼Ģåħ³": 7496,
      "æķĻèĤ²æķĻåŃ¦": 7497,
      "éĻĨç»Ń": 7498,
      "å®¢åľº": 7499,
      "å·²ç¶ĵ": 7500,
      "ç®¡çĲĨå·¥ä½ľ": 7501,
      "éģĹåĿĢ": 7502,
      "çļĦæĢĿæĥ³": 7503,
      "é«ĺèģĮ": 7504,
      "çĬ¬": 7505,
      "å°±æ²¡æľī": 7506,
      "ç»ıéĶĢåķĨ": 7507,
      "çķ«": 7508,
      "å¤ĸèµĦ": 7509,
      "èĢĲå¿ĥ": 7510,
      "æº¶åīĤ": 7511,
      "åİĤæĪ¿": 7512,
      "è¯»èĢħ": 7513,
      "æľ¬ä¹¦": 7514,
      "âĢ¢": 7515,
      "ç»ĥä¹ł": 7516,
      "åĭ¾": 7517,
      "çĶŁæĢģæĸĩæĺİ": 7518,
      "æ¬£èµı": 7519,
      "åĭ¿": 7520,
      "è¿Ļå¯¹": 7521,
      "çĶ²éĨĽ": 7522,
      "åįģåħ«å¤§": 7523,
      "ä¸Ģé¡¹": 7524,
      "éĿ¢è¯ķ": 7525,
      "æķ¢äºİ": 7526,
      "èĥĮæĻ¯ä¸ĭ": 7527,
      "æµģåŁŁ": 7528,
      "æĥħæĢĢ": 7529,
      "é³ŀ": 7530,
      "çº§çļĦ": 7531,
      "æī¿è½½": 7532,
      "ai": 7533,
      "å¹¶åıĳ": 7534,
      "å¤±æľĽ": 7535,
      "æĢ»çĲĨ": 7536,
      "è¿Ļé¡¹": 7537,
      "æµģäº§": 7538,
      "å°ĦéĹ¨": 7539,
      "ç½¢": 7540,
      "åħļçļĦäºĮåįģå¤§ç²¾ç¥ŀ": 7541,
      "åľ¨åĽ½åĨħ": 7542,
      "åĪĨå·¥": 7543,
      "æĹłçº¿": 7544,
      "èĪ¹èĪ": 7545,
      "ä¸Ģåº¦": 7546,
      "åįµç®¡": 7547,
      "å¼ĢåıĳåĮº": 7548,
      "çļĦé£İéĻ©": 7549,
      "ä¼łåªĴ": 7550,
      "çĨĻ": 7551,
      "çĶµä¿¡": 7552,
      "æĺŃ": 7553,
      "åħ¬å®īæľºåħ³": 7554,
      "æī®æ¼Ķ": 7555,
      "æĹ©åľ¨": 7556,
      "éĻĦåĬł": 7557,
      "åĢ¡å¯¼": 7558,
      "æłĩè¯Ĩ": 7559,
      "åĩºç§Ł": 7560,
      "èĬ¦": 7561,
      "åĽ¾åĥı": 7562,
      "è¿İæİ¥": 7563,
      "æĢİä¹ĪåĬŀ": 7564,
      "åľ¨æĪĳåĽ½": 7565,
      "æĹħå®¢": 7566,
      "çļĦäºĭå®ŀ": 7567,
      "åĪĽç«ĭ": 7568,
      "è¦ģä»¥": 7569,
      "åĨĽäºº": 7570,
      "cm": 7571,
      "ä»İå°ı": 7572,
      "èĲĮ": 7573,
      "åĲİç»Ń": 7574,
      "çĽ²çĽ®": 7575,
      "æĹ¢æľī": 7576,
      "åľ¨å¤ĸ": 7577,
      "çĿĲ": 7578,
      "é¤Ĳåİħ": 7579,
      "åĲĦæĸ¹éĿ¢": 7580,
      "é¹¤": 7581,
      "çľĭåĪ°äºĨ": 7582,
      "åĲĪä½ľä¼Ļä¼´": 7583,
      "ç½ķ": 7584,
      "å¾©": 7585,
      "å¥½è¯Ħ": 7586,
      "æĨ¾": 7587,
      "æĦģ": 7588,
      "åĿİ": 7589,
      "éĻĦå±ŀ": 7590,
      "åıĹçĲĨ": 7591,
      "ä¸ĩäº¿åħĥ": 7592,
      "æĺŁæľŁ": 7593,
      "åĽ½éĻħåĮĸ": 7594,
      "å¤ļåĲį": 7595,
      "æĽ´é«ĺçļĦ": 7596,
      "åĮ»æ²»": 7597,
      "æŀģä¸º": 7598,
      "çļĦæĤ£èĢħ": 7599,
      "com": 7600,
      "è§Ħç«ł": 7601,
      "æĮģæľī": 7602,
      "éļĶçĥŃ": 7603,
      "æ½ľåľ¨": 7604,
      "åıĸåĨ³": 7605,
      "ç»ĵæĿŁåĲİ": 7606,
      "mg": 7607,
      "èµ°äºĨ": 7608,
      "åĽºåĮĸ": 7609,
      "æĸ°ä¸ŃåĽ½": 7610,
      "éĽĸ": 7611,
      "æĹ¶ä»£çļĦ": 7612,
      "å¸¦æľī": 7613,
      "éĽĨåĽ¢æľīéĻĲåħ¬åı¸": 7614,
      "æŃ·": 7615,
      "èĻŁ": 7616,
      "åĬ³åĬ¨åĲĪåĲĮ": 7617,
      "åĥħ": 7618,
      "éĸĭå§ĭ": 7619,
      "èıĩ": 7620,
      "å±ķä¼ļ": 7621,
      "å¹¶å°Ĩ": 7622,
      "ç»©æķĪ": 7623,
      "ä½ĵæ£Ģ": 7624,
      "æł¡åĮº": 7625,
      "è¦ģåĿļæĮģ": 7626,
      "åĪ«äººçļĦ": 7627,
      "ä»£çłģ": 7628,
      "è¾¹ç¼ĺ": 7629,
      "æ²īæ·Ģ": 7630,
      "è¾ĵåįµç®¡": 7631,
      "èĢĥåı¤": 7632,
      "é£Łåĵģå®īåħ¨": 7633,
      "æĭ¼æĲı": 7634,
      "ç¼¸": 7635,
      "ç¾İé£Ł": 7636,
      "ç®¡çĲĨéĥ¨éĹ¨": 7637,
      "å¯Ĥ": 7638,
      "çĻ¾å¹´å¥ĭæĸĹ": 7639,
      "æ¿ĢçĥĪ": 7640,
      "ç¬¬äºĮä¸ª": 7641,
      "æĺİå¤©": 7642,
      "èĳĹåĲįçļĦ": 7643,
      "åıĽ": 7644,
      "åħ¶ä¸ŃçļĦ": 7645,
      "åĩĢæ°´": 7646,
      "èĢģæĿ¿": 7647,
      "çģ«éĶħ": 7648,
      "å¤ªå¹³": 7649,
      "æ·±åľ³å¸Ĥ": 7650,
      "è¿ĺåĮħæĭ¬": 7651,
      "åľ°è¯´": 7652,
      "çĥŃéĩı": 7653,
      "åħĭæĸ¯": 7654,
      "çŃīçī¹çĤ¹": 7655,
      "å§ļ": 7656,
      "èµĭäºĪ": 7657,
      "æĪĳä»¬è¿ĺè¦ģ": 7658,
      "æ´¾éģ£": 7659,
      "ä¸Ģè¡Į": 7660,
      "ä¸ºæľ¬": 7661,
      ";(": 7662,
      "ä½ľäºĨ": 7663,
      "è¾£æ¤Ĵ": 7664,
      "çĭŃ": 7665,
      "ç½Ĺé©¬": 7666,
      "é¥®çĶ¨": 7667,
      "åľĴ": 7668,
      "ĠA": 7669,
      "åħ¨ä¸ĸçķĮ": 7670,
      "æłĩçŃ¾": 7671,
      "æīĵç®Ĺ": 7672,
      "éĹ¸": 7673,
      "èĢĮå·²": 7674,
      "åĢºåĪ¸": 7675,
      "åĨħåľ°": 7676,
      "ç¼ºå°ĳ": 7677,
      "èµĮ": 7678,
      "æ¶¤": 7679,
      "èİ·å¥ĸ": 7680,
      "ç§ĳåŃ¦çłĶç©¶": 7681,
      "åıĸåĨ³äºİ": 7682,
      "æĮĩå¯¼ä¸ĭ": 7683,
      "åĮĸè§£": 7684,
      "çī¹åĪ«æĺ¯åľ¨": 7685,
      "çĶ¨æĪ·çļĦ": 7686,
      "éļ§éģĵ": 7687,
      "ä»İè¿Ļä¸ª": 7688,
      "éĩįè¦ģçļĦæĺ¯": 7689,
      "åĽŀé¡¾": 7690,
      "éĺ¿å°Ķ": 7691,
      "çĻ»å½ķ": 7692,
      "æº¶è§£": 7693,
      "æŃ¡": 7694,
      "åĨħåľ¨": 7695,
      "ä¸İåħ¶ä»ĸ": 7696,
      "ä¸įåı¯éģ¿åħį": 7697,
      "æĦŁåĴĮ": 7698,
      "æ²³åĮĹçľģ": 7699,
      "åĮ»çĸĹæľºæŀĦ": 7700,
      "è¢«åĳĬäºº": 7701,
      "çĵ£": 7702,
      "è£ģåĪ¤": 7703,
      "ä¸Ńè¶ħ": 7704,
      "åĩºä¸Ģ": 7705,
      "åĩºçı¾": 7706,
      "ç¦ħ": 7707,
      "ç«ĭæĸ¹": 7708,
      "æĸ°æĿĲæĸĻ": 7709,
      "å°ĨæĿ¥": 7710,
      "èĮĦ": 7711,
      "ĠM": 7712,
      "éĢĢåĩº": 7713,
      "çļĦç»ıæµİ": 7714,
      "åĪĽæĸ°åĪĽä¸ļ": 7715,
      "ç¨³æŃ¥": 7716,
      "çļĦåīįæıĲ": 7717,
      "æĮ«": 7718,
      "å½ĵä½ł": 7719,
      "åĨ³çŃĸéĥ¨ç½²": 7720,
      "å¿«æį·": 7721,
      "é«ĺçŃīæķĻèĤ²": 7722,
      "GDP": 7723,
      "è§Ĩä¸º": 7724,
      "åŃ¦çļĦ": 7725,
      "æ°ĳäºĭ": 7726,
      "åľ°åŁŁ": 7727,
      "å®¡è®®": 7728,
      "åİ¨æĪ¿": 7729,
      "ä¸»äºº": 7730,
      "å¹¶å¯¹": 7731,
      "åħ¨åħļ": 7732,
      "åľĨæ»¡": 7733,
      "éº»çĥ¦": 7734,
      "è¶ĬåįĹ": 7735,
      "æľªèĥ½": 7736,
      "æ¯ıä¸Ģä½į": 7737,
      "åĵĢ": 7738,
      "æĹ¶æľº": 7739,
      "èĪ¹èĪ¶": 7740,
      "å°ĨåĨĽ": 7741,
      "çī¹æ®ĬçļĦ": 7742,
      "å¤¸": 7743,
      "çĽ¸å¤Ħ": 7744,
      "å¯¹éĺµ": 7745,
      "èĩªå¾ĭ": 7746,
      "åħĭåħ°": 7747,
      "è´¦æĪ·": 7748,
      "é¢Ħç¤ºçĿĢ": 7749,
      "æĥ¨": 7750,
      "å£°æĺİ": 7751,
      "åºŁçī©": 7752,
      "éħ°": 7753,
      "åĬ¨åĳĺ": 7754,
      "éĴ¾": 7755,
      "åıĳéħµ": 7756,
      "æ°ĶçļĦ": 7757,
      "éĥ¡": 7758,
      "ä¸įè®º": 7759,
      "äºĭçī©": 7760,
      "åıĹåĪ°äºĨ": 7761,
      "åľ°æĿ¿": 7762,
      "ä»£æĽ¿": 7763,
      "ä¼ļä½¿": 7764,
      "åĶ¤": 7765,
      "è¢ĸ": 7766,
      "Ġ?": 7767,
      "åĪ¶çļĦ": 7768,
      "ç§¯åĪĨ": 7769,
      "åĲĪèĤ¥": 7770,
      "97": 7771,
      "ç±»åŀĭçļĦ": 7772,
      "åĬĳ": 7773,
      "å»īæ´ģ": 7774,
      "å¦ĥ": 7775,
      "å¸ĪèĮĥå¤§åŃ¦": 7776,
      "åľ¨ä¸Ģä¸ª": 7777,
      "ä¸īçº§": 7778,
      "çĳ°": 7779,
      "è©¦": 7780,
      "æĹ¥å¸¸çĶŁæ´»ä¸Ń": 7781,
      "äº§ä¸ļåĮĸ": 7782,
      "åĽ½èµĦ": 7783,
      "æĸ°å¾ģç¨ĭ": 7784,
      "æ´»åĭķ": 7785,
      "èĩº": 7786,
      "Ġ;": 7787,
      "ä»ĩ": 7788,
      "å»¶ç»Ń": 7789,
      "æŀ¯": 7790,
      "ä¸ĭä¸Ģ": 7791,
      "ä¿Ŀå®ī": 7792,
      "æĶ¿çŃĸçļĦ": 7793,
      "åĴĮå·¥ä½ľ": 7794,
      "åİ¿å§Ķ": 7795,
      "âĢķâĢķ": 7796,
      "æ·±æ·±": 7797,
      "éĿĴçĿĲ": 7798,
      "--------": 7799,
      "æĪĳä¹Ł": 7800,
      "æ¹ĸåĮĹçľģ": 7801,
      "AA": 7802,
      "ä¼łè¯´": 7803,
      "åı¯è°ĵ": 7804,
      "åħ¨åİ¿": 7805,
      "èĬĴ": 7806,
      "éªĦ": 7807,
      "æĹłç¼Ŀ": 7808,
      "åĲĥé¥Ń": 7809,
      "è§£åĨ³äºĨ": 7810,
      "åħ³æĢĢ": 7811,
      "ç§ĳæĻ®": 7812,
      "å¿«éĢŁåıĳå±ķ": 7813,
      "è¶³å¤ŁçļĦ": 7814,
      "èĩ´çļĦ": 7815,
      "çĽ¸å½ĵäºİ": 7816,
      "é¦ĸå¸Ń": 7817,
      "åĬĽäºī": 7818,
      "çī¹ç§į": 7819,
      "ä¼łå¥ĩ": 7820,
      "ä»ĸä»¬åľ¨": 7821,
      "å½ĵä¸ĭ": 7822,
      "èĨĿ": 7823,
      "åŃĲå®«åĨħèĨľ": 7824,
      "è¿ľç¦»": 7825,
      "ä¸¤ä½į": 7826,
      "ç»ĵåĲĪèµ·æĿ¥": 7827,
      "çļĦè¡¨çİ°": 7828,
      "çļĦåģ¥åº·": 7829,
      "æŁ´æ²¹": 7830,
      "åıĳå±ķæĪĺçķ¥": 7831,
      "ç¬¼": 7832,
      "æ¼Ķè®²": 7833,
      "åĮ»çĸĹåĻ¨æ¢°": 7834,
      "ac": 7835,
      "ä¸»æµģ": 7836,
      "è¿ľè¿ľ": 7837,
      "éĽĮ": 7838,
      "éħļ": 7839,
      "ä½ľå®¶": 7840,
      "è®¾è®¡å¸Ī": 7841,
      "æĺ¯ä¸º": 7842,
      "è¿Ľè¡Įæ²»çĸĹ": 7843,
      "åķĨå®¶": 7844,
      "åĨįåĬłä¸Ĭ": 7845,
      "åįķçĭ¬": 7846,
      "åĨįåº¦": 7847,
      "å¥½å¥½åľ°": 7848,
      "åŃ¦å®¶": 7849,
      "åīįè¡Į": 7850,
      "ä¸Ľ": 7851,
      "ç§ĳåŃ¦çļĦ": 7852,
      "è¯µ": 7853,
      "PC": 7854,
      "å¸ľ": 7855,
      "å·¥ä¼¤": 7856,
      "2001": 7857,
      "äºŀ": 7858,
      "åı¯åĪĨä¸º": 7859,
      "äºĮçŃīå¥ĸ": 7860,
      "æĹŃ": 7861,
      "èĦĵ": 7862,
      "æł¸éħ¸": 7863,
      "åįĳ": 7864,
      "é¦ĸéĥ½": 7865,
      "æĹ¶éĹ´çļĦ": 7866,
      "æİ¨è¡Į": 7867,
      "éĺ¿æĭī": 7868,
      "èµ¢å¾ĹäºĨ": 7869,
      "éĥ½éľĢè¦ģ": 7870,
      "å®ģæ³¢": 7871,
      "æĪĲçĤº": 7872,
      "æĦŁåĬ¨": 7873,
      "éĤĬ": 7874,
      "çļĦé£İ": 7875,
      "ä¸ľèİŀ": 7876,
      "åºĶè¯¥æĺ¯": 7877,
      "é¢ĦèŃ¦": 7878,
      "æĻ¯çĤ¹": 7879,
      "ç½ĳç»ľå®īåħ¨": 7880,
      "ä¹Łä¸įæĺ¯": 7881,
      "ä¼łåĬ¨": 7882,
      "çĴ°å¢ĥ": 7883,
      "ä¸įæĸŃæıĲåįĩ": 7884,
      "æ¬¡æķ°": 7885,
      "å®¶çĶµ": 7886,
      "çĤ¹åĩ»": 7887,
      "å°ıäºİ": 7888,
      "å¦Ĥæŀľä¸į": 7889,
      "åĵ²çĲĨ": 7890,
      "çļĦéĩįå¤§": 7891,
      "åĲ¾": 7892,
      "æľīæ²¡æľī": 7893,
      "èŃ¦åĳĬ": 7894,
      "æļĤæĹ¶": 7895,
      "åľ¨ç¾İåĽ½": 7896,
      "åĨ¬å¤©": 7897,
      "äº²èĩª": 7898,
      "86": 7899,
      "ä¹ĭéĻħ": 7900,
      "æĪĳå¸Ĥ": 7901,
      "çĶ·åŃ©": 7902,
      "éĤ£ç§į": 7903,
      "åį³ä¾¿": 7904,
      "åħ¨è¿ĩç¨ĭ": 7905,
      "åĤ·": 7906,
      "æķ·": 7907,
      "åħ¬ç§¯": 7908,
      "èī²ç´ł": 7909,
      "ä¸Ģå®ļä¼ļ": 7910,
      "å®¶ä¸Ń": 7911,
      "GB": 7912,
      "åĬ¨èĦī": 7913,
      "çļĦçĬ¶æĢģ": 7914,
      "è®¾è®¡çļĦ": 7915,
      "æŁ¯": 7916,
      "è¿ĺåı¯": 7917,
      "è§£éĻ¤": 7918,
      "åİĤåķĨ": 7919,
      "åĨĻä½ľ": 7920,
      "æµ·ä¸Ĭ": 7921,
      "æ¼ĶåĶ±": 7922,
      "æĮ¯åĬ¨": 7923,
      "æ¢Ĺ": 7924,
      "çļĦå¤©": 7925,
      "è¿ĶåĽŀ": 7926,
      "ä¸įå¤§": 7927,
      "å¦Ĥæľī": 7928,
      "èı©èĲ¨": 7929,
      "åŀĭåı·": 7930,
      "åģıæĹº": 7931,
      "çĩĥæ°Ķ": 7932,
      "Ġ0": 7933,
      "çĶ¨è½¦": 7934,
      "ç»´çĶŁç´łC": 7935,
      "APP": 7936,
      "åĪ¶éĢłåķĨ": 7937,
      "æļ´åĬĽ": 7938,
      "éĻ¤æŃ¤ä¹ĭå¤ĸ": 7939,
      "åī¯ä¸»å¸Ń": 7940,
      "ä¸ĬçıŃ": 7941,
      "éĩİçĶŁ": 7942,
      "æķħæĦı": 7943,
      "æ²ª": 7944,
      "äºĶè¡Įç¼ºä»Ģä¹Ī": 7945,
      "æĮ½": 7946,
      "éĻ³": 7947,
      "åıĬåħ¶ä»ĸ": 7948,
      "æĮĩå®ļ": 7949,
      "æ¸ħæ°´": 7950,
      "åħ¨å±Ģ": 7951,
      "ç¬¬ä¸īæĸ¹": 7952,
      "äº¤åıī": 7953,
      "å¿ĥçģµ": 7954,
      "æľĢåĲİä¸Ģ": 7955,
      "æ´¾åĩº": 7956,
      "æ¹ĸåįĹçľģ": 7957,
      "çļĦéĩįè¦ģæĢ§": 7958,
      "å®¶å±ŀ": 7959,
      "è®©èĩªå·±": 7960,
      "å¤įæĿĤçļĦ": 7961,
      "è·¯å¾Ħ": 7962,
      "å¼Ģå±ķäºĨ": 7963,
      "éĹ·": 7964,
      "éħĴç²¾": 7965,
      "æ¯Ķä¸Ĭå¹´": 7966,
      "çĥŃçĤ¹": 7967,
      "åĩºåĶ®": 7968,
      "åľºåĲĪ": 7969,
      "æĿ¿æĿĲ": 7970,
      "çļĦæľĭåıĭ": 7971,
      "å¥ĳæľº": 7972,
      "çĽ´å¾Ħ": 7973,
      "æ±ŁåįĹ": 7974,
      "å¤§éģĵ": 7975,
      "æ³¨åħ¥": 7976,
      "éłĪ": 7977,
      "åħĪéĶĭ": 7978,
      "èĨ³": 7979,
      "åŃĲåħ¬åı¸": 7980,
      "ä¹¦éĿ¢": 7981,
      "çļĦæłĩåĩĨ": 7982,
      "å¤ĦåĪĨ": 7983,
      "ä¹łè¿ĳå¹³åĲĮå¿Ĺ": 7984,
      "ç¥¸": 7985,
      "æĪĳä¼ļ": 7986,
      "æĵİ": 7987,
      "åĽĽå¹´": 7988,
      "çļĦé¡¹çĽ®": 7989,
      "Ľèµ·": 7990,
      "åĥ§": 7991,
      "ä¸įç§»": 7992,
      "çº±": 7993,
      "ç£¨æįŁ": 7994,
      "ç«ŁçĦ¶": 7995,
      "ro": 7996,
      "æĭľä»ģ": 7997,
      "å¯¼ä½ĵ": 7998,
      "é¢Ĩå¯¼ä¸ĭ": 7999,
      "åľ°åĿĢ": 8000,
      "ä¸Ńå¤ĸ": 8001,
      "é«ĺå±Ĥ": 8002,
      "æĵĩ": 8003,
      "éģł": 8004,
      "åĪĿä¸Ń": 8005,
      "å·¥ä»¶": 8006,
      "åħ¨éĿ¢ä»İä¸¥æ²»åħļ": 8007,
      "çļĦæľī": 8008,
      "ä¾Ľæ°´": 8009,
      "åīįåĲİ": 8010,
      "èįĨ": 8011,
      "æ¯ıæľĪ": 8012,
      "åľ¨åĨħçļĦ": 8013,
      "åħ¥åŃ¦": 8014,
      "å²ģæľĪ": 8015,
      "çĶµè§Ĩåı°": 8016,
      "éĩįè¦ģä½ľçĶ¨": 8017,
      "èĮħåı°": 8018,
      "çŀ¬éĹ´": 8019,
      "è¶ħå¸Ĥ": 8020,
      "æľŁåĪĬ": 8021,
      "åĲĳä¸Ĭ": 8022,
      "åħħåĪĨåĪ©çĶ¨": 8023,
      "èº«ä»½è¯ģ": 8024,
      "æ½Ń": 8025,
      "åŃĶåŃĲ": 8026,
      "æ¿Ģæĥħ": 8027,
      "æĦ¤": 8028,
      "åį°åıĳ": 8029,
      "äºĶå¤§": 8030,
      "è¶Ĭå¤§": 8031,
      "åħ¬ç§¯éĩĳ": 8032,
      "ä¸įä»ħæĺ¯": 8033,
      "å°ıåŃ©": 8034,
      "åĪĨåħ¬åı¸": 8035,
      "ç«£": 8036,
      "çªģåıĳ": 8037,
      "çŃīäºº": 8038,
      "é¢Ĩä¼ļ": 8039,
      "ç²īæľ«": 8040,
      "çļĦå¤ļ": 8041,
      "ä¸ŃåĽ½äºº": 8042,
      "åıĳçĶŁåľ¨": 8043,
      "ä¸ºä¾ĭ": 8044,
      "çļĦæīĭ": 8045,
      "åĸĤ": 8046,
      "çµĤ": 8047,
      "æī³": 8048,
      "åĳĨ": 8049,
      "åĽ¾æ¡Ī": 8050,
      "åİ»ä¸ĸ": 8051,
      "äºĨå¯¹": 8052,
      "åī§æĥħ": 8053,
      "æĻ´": 8054,
      "ä¸įè§ģ": 8055,
      "è¿Ļæ®µ": 8056,
      "èµļéĴ±": 8057,
      "çļĦåħ·ä½ĵ": 8058,
      "ä¿¡èµĸ": 8059,
      "å·¡è§Ĩ": 8060,
      "èĴ¸åıĳ": 8061,
      "ç´«å¤ĸçº¿": 8062,
      "ç®¡çĲĨäººåĳĺ": 8063,
      "æĶ¾ç½®": 8064,
      "æ¸Ŀ": 8065,
      "ä¸¥è°¨": 8066,
      "è´Łèį·": 8067,
      "å¯ĨéĽĨ": 8068,
      "æĺ¯ä»İ": 8069,
      "çŁ³å¢¨": 8070,
      "åĽ½æľīä¼ģä¸ļ": 8071,
      "éĿĴæµ·": 8072,
      "èįīåİŁ": 8073,
      "åĪ¤åĨ³": 8074,
      "æ·»åĬłåīĤ": 8075,
      "æ°¯åĮĸ": 8076,
      "éĿĸ": 8077,
      "å¼ºçĥĪçļĦ": 8078,
      "éĺµå®¹": 8079,
      "è¾±": 8080,
      "åĵģçļĦ": 8081,
      "87": 8082,
      "çļĦä¸Ģéĥ¨åĪĨ": 8083,
      "am": 8084,
      "åºĵåŃĺ": 8085,
      "ç»ĦæĪĲåĳĺ": 8086,
      "æ¸Ĭ": 8087,
      "ä¸ļçļĦ": 8088,
      "âĹı": 8089,
      "æĦŁæģ©": 8090,
      "è°ĥçĲĨ": 8091,
      "äººå¤§å¸¸å§Ķä¼ļ": 8092,
      "æº¯": 8093,
      "ä¸ĭæ»ĳ": 8094,
      "æ¢ħè¥¿": 8095,
      "å®Įæķ´çļĦ": 8096,
      "è¿Ļåľº": 8097,
      "ä»İæŃ¤": 8098,
      "æ¬§åħĥ": 8099,
      "ä¹ĭæĹ¥èµ·": 8100,
      "ä¸ºä¸»é¢ĺ": 8101,
      "å¿«çļĦ": 8102,
      "ç¬¬ä¹Ŀ": 8103,
      "åĽĽæĺ¯": 8104,
      "è£ħéħį": 8105,
      "çŃīçĽ¸åħ³": 8106,
      "æľįåĬ¡ä¸Ńå¿ĥ": 8107,
      "ä¹ĭåľ°": 8108,
      "æįī": 8109,
      "åĪĽéĢłäºĨ": 8110,
      "æĶ¶ç¼©": 8111,
      "è²¬": 8112,
      "è·Łè¸ª": 8113,
      "æĹ¶éĹ´åĨħ": 8114,
      "æī§æĶ¿": 8115,
      "èĭ±è¶ħ": 8116,
      "çĽ®çļĦæĺ¯": 8117,
      "å¸¸çĶ¨çļĦ": 8118,
      "å¸¦çĿĢè¿Ļåı¥è¯Ŀ": 8119,
      "æĺİå¹´": 8120,
      "çº¦æĿŁ": 8121,
      "åıĺæĽ´": 8122,
      "å¤´åıĳ": 8123,
      "è´§è¿Ĳ": 8124,
      "å¼Ĭ": 8125,
      "çŁ³åĮĸ": 8126,
      "åĳķ": 8127,
      "åı£æĦŁ": 8128,
      "æĪĳä»¬è¿ĺè¦ģæĽ´åĬł": 8129,
      "ä½Ĩä»ĸ": 8130,
      "ç«ŀæĬĢ": 8131,
      "åĮ»çĶŁçļĦ": 8132,
      "åĵģçīĮçļĦ": 8133,
      "æĹ¥æľŁ": 8134,
      "æĢ»æķ°": 8135,
      "å·¥ç¨ĭå»ºè®¾": 8136,
      "åĲ¯åıĳäºĨæĪĳ": 8137,
      "æľĪåĪĿ": 8138,
      "å¼¦": 8139,
      "è¿ĻåĲ¯åıĳäºĨæĪĳ": 8140,
      "éĳ«": 8141,
      "æİĴåįµ": 8142,
      "æĿĥçļĦ": 8143,
      "çīĪæľ¬": 8144,
      "åº¸": 8145,
      "æīĢå¾Ĺç¨İ": 8146,
      "ä¸įå®¹æĺĵ": 8147,
      "æĹ©ä¸Ĭ": 8148,
      "ä¸Ģå¼ł": 8149,
      "ç»ıæµİæķĪçĽĬ": 8150,
      "æĸ©": 8151,
      "çĶ³è¯·äºº": 8152,
      "åįĶ": 8153,
      "èĶĵ": 8154,
      "åļ´": 8155,
      "æĪĳä¸į": 8156,
      "æĢ¡": 8157,
      "å¥¢": 8158,
      "çĹ°": 8159,
      "è®¤è¯ĨåĪ°": 8160,
      "æĪĳä»¬åħļ": 8161,
      "å¹´ä»¥æĿ¥": 8162,
      "åĸĺ": 8163,
      "ç£Ĭ": 8164,
      "ä¸Ģæ¬¡æĢ§": 8165,
      "æģ¶æĢ§": 8166,
      "çļĦæĪĲç»©": 8167,
      "åĲĦæĸ¹": 8168,
      "å¸Ĥéķ¿": 8169,
      "åı°çģ£": 8170,
      "æĿĢèıĮ": 8171,
      "æľīæľŁå¾ĴåĪĳ": 8172,
      "ä¸įåıĬ": 8173,
      "ä¾µçĬ¯": 8174,
      "ä¹Įåħĭåħ°": 8175,
      "æİ¥åĪ°": 8176,
      "æ¿Ł": 8177,
      "çĻ¼çı¾": 8178,
      "è¯ģå®ŀ": 8179,
      "èĳ¡èĲĦéħĴ": 8180,
      "çļĦä¸įåĲĮ": 8181,
      "å½±åĵįåĪ°": 8182,
      "çļĦè´£ä»»": 8183,
      "ä¹ĭäºº": 8184,
      "åĨĢ": 8185,
      "æľīäºĽäºº": 8186,
      "çļĦä½įç½®": 8187,
      "å¹³éĿ¢": 8188,
      "çĸĹæķĪ": 8189,
      "åĪĽå§ĭ": 8190,
      "è¯¥åħ¬åı¸": 8191
    },
    "merges": [
      [
        "ä",
        "¸"
      ],
      [
        "ã",
        "Ģ"
      ],
      [
        "ç",
        "ļ"
      ],
      [
        "çļ",
        "Ħ"
      ],
      [
        "ä",
        "º"
      ],
      [
        "ãĢ",
        "Ĥ"
      ],
      [
        "æ",
        "ľ"
      ],
      [
        "å",
        "ı"
      ],
      [
        "å",
        "ħ"
      ],
      [
        "ä",
        "»"
      ],
      [
        "å",
        "¤"
      ],
      [
        "ãĢ",
        "ģ"
      ],
      [
        "å",
        "®"
      ],
      [
        "å",
        "Ī"
      ],
      [
        "ä",
        "½"
      ],
      [
        "è",
        "¿"
      ],
      [
        "ç",
        "Ķ"
      ],
      [
        "å",
        "ľ"
      ],
      [
        "å",
        "Ĳ"
      ],
      [
        "å",
        "Ĭ"
      ],
      [
        "æ",
        "ĺ"
      ],
      [
        "ç",
        "»"
      ],
      [
        "å",
        "Ľ"
      ],
      [
        "æ",
        "Ī"
      ],
      [
        "æ",
        "ĸ"
      ],
      [
        "ä",
        "¹"
      ],
      [
        "ä",
        "¼"
      ],
      [
        "ä¸",
        "Ģ"
      ],
      [
        "å",
        "¹"
      ],
      [
        "å",
        "°"
      ],
      [
        "æĺ",
        "¯"
      ],
      [
        "å",
        "Ń"
      ],
      [
        "è",
        "®"
      ],
      [
        "æ",
        "Ĺ"
      ],
      [
        "â",
        "Ģ"
      ],
      [
        "å",
        "į"
      ],
      [
        "å",
        "·"
      ],
      [
        "æľ",
        "ī"
      ],
      [
        "è",
        "¯"
      ],
      [
        "åľ",
        "¨"
      ],
      [
        "é",
        "ĩ"
      ],
      [
        "æ",
        "Ŀ"
      ],
      [
        "äº",
        "º"
      ],
      [
        "å",
        "Į"
      ],
      [
        "ä¸",
        "į"
      ],
      [
        "å",
        "¸"
      ],
      [
        "å",
        "º"
      ],
      [
        "ä¸",
        "Ń"
      ],
      [
        "å",
        "¼"
      ],
      [
        "æ",
        "ī"
      ],
      [
        "é",
        "Ģ"
      ],
      [
        "å",
        "Ĵ"
      ],
      [
        "è",
        "¡"
      ],
      [
        "å",
        "¾"
      ],
      [
        "å",
        "Ĩ"
      ],
      [
        "è",
        "Ģ"
      ],
      [
        "å",
        "¯"
      ],
      [
        "åĴ",
        "Į"
      ],
      [
        "å",
        "ĩ"
      ],
      [
        "äº",
        "Ĩ"
      ],
      [
        "å",
        "±"
      ],
      [
        "æ",
        "ķ"
      ],
      [
        "ĥ",
        "½"
      ],
      [
        "æ",
        "Ģ"
      ],
      [
        "å¤",
        "§"
      ],
      [
        "ç",
        "Ľ"
      ],
      [
        "æ",
        "Ĭ"
      ],
      [
        "æ",
        "°"
      ],
      [
        "è",
        "´"
      ],
      [
        "ä¸",
        "º"
      ],
      [
        "ç",
        "§"
      ],
      [
        "æ",
        "ł"
      ],
      [
        "åĽ",
        "½"
      ],
      [
        "è",
        "§"
      ],
      [
        "çĶ",
        "Ł"
      ],
      [
        "ç",
        "İ"
      ],
      [
        "è",
        "¦"
      ],
      [
        "ä¸",
        "ļ"
      ],
      [
        "ç",
        "ī"
      ],
      [
        "ä»",
        "¥"
      ],
      [
        "è",
        "µ"
      ],
      [
        "å",
        "¥"
      ],
      [
        "æ",
        "Ķ"
      ],
      [
        "å",
        "¿"
      ],
      [
        "è¦",
        "ģ"
      ],
      [
        "é",
        "Ļ"
      ],
      [
        "åŃ",
        "¦"
      ],
      [
        "é",
        "Ŀ"
      ],
      [
        "åı",
        "ĳ"
      ],
      [
        "è",
        "ĩ"
      ],
      [
        "å¹",
        "´"
      ],
      [
        "ä¼",
        "ļ"
      ],
      [
        "å",
        "İ"
      ],
      [
        "çĶ",
        "¨"
      ],
      [
        "æ",
        "Ń"
      ],
      [
        "æ",
        "³"
      ],
      [
        "ç",
        "Ń"
      ],
      [
        "ç",
        "Ĳ"
      ],
      [
        "ä",
        "¿"
      ],
      [
        "å",
        "½"
      ],
      [
        "è",
        "ĥ½"
      ],
      [
        "é",
        "Ĺ"
      ],
      [
        "ç",
        "º"
      ],
      [
        "æ",
        "²"
      ],
      [
        "å·",
        "¥"
      ],
      [
        "ä¸",
        "Ĭ"
      ],
      [
        "ä½",
        "ľ"
      ],
      [
        "å",
        "ĳ"
      ],
      [
        "æ",
        "İ"
      ],
      [
        "æ",
        "µ"
      ],
      [
        "æ",
        "ŀ"
      ],
      [
        "æĹ",
        "¶"
      ],
      [
        "ä¸",
        "ª"
      ],
      [
        "âĢ",
        "ľ"
      ],
      [
        "âĢ",
        "Ŀ"
      ],
      [
        "æĪ",
        "Ĳ"
      ],
      [
        "è¡",
        "Į"
      ],
      [
        "è¿",
        "Ļ"
      ],
      [
        "å",
        "ĵ"
      ],
      [
        "åı",
        "¯"
      ],
      [
        "é",
        "¢"
      ],
      [
        "æĪ",
        "ĳ"
      ],
      [
        "åĪ",
        "°"
      ],
      [
        "æ",
        "¯"
      ],
      [
        "å¯",
        "¹"
      ],
      [
        "æ",
        "Į"
      ],
      [
        "åĩ",
        "º"
      ],
      [
        "å",
        "Ł"
      ],
      [
        "æ",
        "ĥ"
      ],
      [
        "è",
        "¾"
      ],
      [
        "é",
        "ĺ"
      ],
      [
        "é",
        "«"
      ],
      [
        "å®",
        "¶"
      ],
      [
        "äº",
        "İ"
      ],
      [
        "çĲ",
        "Ĩ"
      ],
      [
        "ç",
        "ľ"
      ],
      [
        "å",
        "ī"
      ],
      [
        "é«",
        "ĺ"
      ],
      [
        "è",
        "Ĥ"
      ],
      [
        "äº",
        "§"
      ],
      [
        "æĿ",
        "¥"
      ],
      [
        "æ",
        "±"
      ],
      [
        "çŃ",
        "ī"
      ],
      [
        "åľ",
        "°"
      ],
      [
        "å¤",
        "ļ"
      ],
      [
        "æ",
        "Ħ"
      ],
      [
        "åĮ",
        "ĸ"
      ],
      [
        "æ",
        "ĭ"
      ],
      [
        "æĸ",
        "¹"
      ],
      [
        "åħ",
        "¨"
      ],
      [
        "åĪ",
        "Ĩ"
      ],
      [
        "åĬ",
        "Ľ"
      ],
      [
        "è¿",
        "Ľ"
      ],
      [
        "è",
        "½"
      ],
      [
        "é",
        "ģ"
      ],
      [
        "èĩ",
        "ª"
      ],
      [
        "ä½",
        "ĵ"
      ],
      [
        "æĸ",
        "°"
      ],
      [
        "å",
        "»"
      ],
      [
        "ç",
        "®"
      ],
      [
        "æĢ",
        "§"
      ],
      [
        "ä",
        "¾"
      ],
      [
        "æ",
        "´"
      ],
      [
        "åĬ",
        "¨"
      ],
      [
        "ç",
        "«"
      ],
      [
        "å®",
        "ŀ"
      ],
      [
        "ç»",
        "ı"
      ],
      [
        "åħ",
        "¬"
      ],
      [
        "æ",
        "¸"
      ],
      [
        "è¿",
        "ĩ"
      ],
      [
        "ä¹",
        "Ł"
      ],
      [
        "çİ",
        "°"
      ],
      [
        "é",
        "ĥ"
      ],
      [
        "ä»",
        "¬"
      ],
      [
        "ç",
        "¨"
      ],
      [
        "å",
        "¦"
      ],
      [
        "å°",
        "±"
      ],
      [
        "å±",
        "ķ"
      ],
      [
        "åĲ",
        "İ"
      ],
      [
        "åĲ",
        "Ī"
      ],
      [
        "é",
        "ķ"
      ],
      [
        "ä¸",
        "»"
      ],
      [
        "ç",
        "Ļ"
      ],
      [
        "ç",
        "Ĥ"
      ],
      [
        "å",
        "ģ"
      ],
      [
        "ä¸",
        "ĭ"
      ],
      [
        "éĿ",
        "¢"
      ],
      [
        "æ",
        "ı"
      ],
      [
        "éĩ",
        "į"
      ],
      [
        "é",
        "£"
      ],
      [
        "æ",
        "¬"
      ],
      [
        "ç",
        "½"
      ],
      [
        "æ",
        "Ľ"
      ],
      [
        "å»",
        "º"
      ],
      [
        "å®",
        "ļ"
      ],
      [
        "ä»",
        "ĸ"
      ],
      [
        "æľ",
        "º"
      ],
      [
        "åĵ",
        "ģ"
      ],
      [
        "éĥ",
        "¨"
      ],
      [
        "åĲ",
        "Į"
      ],
      [
        "å¥",
        "½"
      ],
      [
        "é",
        "¡"
      ],
      [
        "ä¸",
        "İ"
      ],
      [
        "è®",
        "¾"
      ],
      [
        "è",
        "ī"
      ],
      [
        "æ³",
        "ķ"
      ],
      [
        "å¿",
        "ĥ"
      ],
      [
        "åĬ",
        "ł"
      ],
      [
        "å¸",
        "Ĥ"
      ],
      [
        "ä¹",
        "ĭ"
      ],
      [
        "åº",
        "¦"
      ],
      [
        "è",
        "ģ"
      ],
      [
        "ç",
        "¤"
      ],
      [
        "æ°",
        "´"
      ],
      [
        "èĢ",
        "Į"
      ],
      [
        "å¼",
        "Ģ"
      ],
      [
        "ç",
        "Ĺ"
      ],
      [
        "é",
        "Ľ"
      ],
      [
        "åŃ",
        "Ĳ"
      ],
      [
        "å",
        "¢"
      ],
      [
        "æ",
        "Ļ"
      ],
      [
        "åħ",
        "¶"
      ],
      [
        "åĪ",
        "¶"
      ],
      [
        "æľ",
        "¬"
      ],
      [
        "å¾",
        "Ĺ"
      ],
      [
        "2",
        "0"
      ],
      [
        "å",
        "Ģ"
      ],
      [
        "èĢ",
        "ħ"
      ],
      [
        "éĩ",
        "ı"
      ],
      [
        "è",
        "¶"
      ],
      [
        "ç",
        "ĸ"
      ],
      [
        "è",
        "·"
      ],
      [
        "éķ",
        "¿"
      ],
      [
        "ç",
        "¬"
      ],
      [
        "ç",
        "Ł"
      ],
      [
        "çī",
        "©"
      ],
      [
        "æı",
        "Ĳ"
      ],
      [
        "è",
        "°"
      ],
      [
        "å¦",
        "Ĥ"
      ],
      [
        "å",
        "Ŀ"
      ],
      [
        "åĬ",
        "¡"
      ],
      [
        "åħ",
        "³"
      ],
      [
        "ä¿",
        "Ŀ"
      ],
      [
        "æī",
        "Ģ"
      ],
      [
        "äº",
        "ĭ"
      ],
      [
        "ç®",
        "¡"
      ],
      [
        "åı",
        "Ĭ"
      ],
      [
        "ç",
        "¾"
      ],
      [
        "åī",
        "į"
      ],
      [
        "æĹ",
        "¥"
      ],
      [
        "åº",
        "Ķ"
      ],
      [
        "é",
        "ļ"
      ],
      [
        "æ",
        "¶"
      ],
      [
        "éĢ",
        "ļ"
      ],
      [
        "æ",
        "į"
      ],
      [
        "ç",
        "Ŀ"
      ],
      [
        "åĨ",
        "ħ"
      ],
      [
        "é",
        "ĥ½"
      ],
      [
        "ç",
        "³"
      ],
      [
        "çĶ",
        "µ"
      ],
      [
        "æķ",
        "Ļ"
      ],
      [
        "å",
        "§"
      ],
      [
        "ç",
        "ł"
      ],
      [
        "åľ",
        "º"
      ],
      [
        "ç",
        "©"
      ],
      [
        "æĥ",
        "ħ"
      ],
      [
        "ç§",
        "į"
      ],
      [
        "è",
        "Ĭ"
      ],
      [
        "ç",
        "ķ"
      ],
      [
        "åĽ",
        "ł"
      ],
      [
        "å°",
        "ı"
      ],
      [
        "ç",
        "²"
      ],
      [
        "æľ",
        "Ī"
      ],
      [
        "æĸ",
        "ĩ"
      ],
      [
        "æ",
        "Ł"
      ],
      [
        "ç",
        "Ħ"
      ],
      [
        "å¤",
        "ĸ"
      ],
      [
        "ç",
        "´"
      ],
      [
        "ç¨",
        "ĭ"
      ],
      [
        "åĮ",
        "º"
      ],
      [
        "æ°",
        "ĳ"
      ],
      [
        "åıĳ",
        "å±ķ"
      ],
      [
        "å¹",
        "³"
      ],
      [
        "è",
        "Ĳ"
      ],
      [
        "æľ",
        "Ģ"
      ],
      [
        "æĬ",
        "Ģ"
      ],
      [
        "ç",
        "ĥ"
      ],
      [
        "é",
        "ľ"
      ],
      [
        "èµ",
        "Ħ"
      ],
      [
        "é",
        "ħ"
      ],
      [
        "ç§",
        "ĳ"
      ],
      [
        "æĽ",
        "´"
      ],
      [
        "çĽ",
        "®"
      ],
      [
        "éĹ",
        "´"
      ],
      [
        "ä½",
        "į"
      ],
      [
        "çĽ",
        "¸"
      ],
      [
        "åĳ",
        "ĺ"
      ],
      [
        "è´",
        "¨"
      ],
      [
        "å·¥",
        "ä½ľ"
      ],
      [
        "å¤",
        "©"
      ],
      [
        "æĦ",
        "ı"
      ],
      [
        "ä¸Ń",
        "åĽ½"
      ],
      [
        "å°",
        "Ĩ"
      ],
      [
        "åħ",
        "¥"
      ],
      [
        "æ¯",
        "Ķ"
      ],
      [
        "æľ",
        "¯"
      ],
      [
        "å¸",
        "¸"
      ],
      [
        "ç",
        "¡"
      ],
      [
        "æľ",
        "Ł"
      ],
      [
        "ç³",
        "»"
      ],
      [
        "å®",
        "ī"
      ],
      [
        "çĤ",
        "¹"
      ],
      [
        "ä»",
        "£"
      ],
      [
        "ä½",
        "¿"
      ],
      [
        "ç¬",
        "¬"
      ],
      [
        "è¡",
        "¨"
      ],
      [
        "ç",
        "±"
      ],
      [
        "æĶ",
        "¿"
      ],
      [
        "é",
        "Ķ"
      ],
      [
        "Ĥ",
        "£"
      ],
      [
        "è¯",
        "´"
      ],
      [
        "å¼",
        "º"
      ],
      [
        "å¾",
        "Ī"
      ],
      [
        "ä¸",
        "ī"
      ],
      [
        "æ",
        "·"
      ],
      [
        "è",
        "ĥ"
      ],
      [
        "å½",
        "ĵ"
      ],
      [
        "åı",
        "¸"
      ],
      [
        "æ´",
        "»"
      ],
      [
        "è¿",
        "ĺ"
      ],
      [
        "éģ",
        "ĵ"
      ],
      [
        "çī",
        "¹"
      ],
      [
        "æŀ",
        "ľ"
      ],
      [
        "ä¼",
        "ģ"
      ],
      [
        "æ²",
        "»"
      ],
      [
        "éĩ",
        "ĳ"
      ],
      [
        "èµ",
        "·"
      ],
      [
        "ä»",
        "İ"
      ],
      [
        "å¹",
        "¶"
      ],
      [
        "åı¯",
        "ä»¥"
      ],
      [
        "è",
        "į"
      ],
      [
        "æ",
        "ģ"
      ],
      [
        "æĺ",
        "İ"
      ],
      [
        "åĪ",
        "©"
      ],
      [
        "ç",
        "¥"
      ],
      [
        "æ¬",
        "¡"
      ],
      [
        "çĦ",
        "¶"
      ],
      [
        "æŃ",
        "¤"
      ],
      [
        "è",
        "Ī"
      ],
      [
        "çĿ",
        "Ģ"
      ],
      [
        "ä¿",
        "¡"
      ],
      [
        "åŁ",
        "º"
      ],
      [
        "ãĢ",
        "ĭ"
      ],
      [
        "ãĢ",
        "Ĭ"
      ],
      [
        "ä½",
        "Ĩ"
      ],
      [
        "ä¸",
        "ĵ"
      ],
      [
        "æĪĳ",
        "ä»¬"
      ],
      [
        "åĲ",
        "Ħ"
      ],
      [
        "é",
        "Ĵ"
      ],
      [
        "æĪ",
        "ĸ"
      ],
      [
        "åħ¬",
        "åı¸"
      ],
      [
        "è®",
        "¡"
      ],
      [
        "é£",
        "İ"
      ],
      [
        "éĻ",
        "¢"
      ],
      [
        "ä¼ģ",
        "ä¸ļ"
      ],
      [
        "æĮ",
        "ģ"
      ],
      [
        "åĲ",
        "į"
      ],
      [
        "æľ",
        "į"
      ],
      [
        "æķ",
        "°"
      ],
      [
        "é",
        "ĵ"
      ],
      [
        "æĹ",
        "ł"
      ],
      [
        "åħ",
        "ļ"
      ],
      [
        "ç¾",
        "İ"
      ],
      [
        "çĹ",
        "ħ"
      ],
      [
        "äº",
        "Ľ"
      ],
      [
        "è§",
        "Ħ"
      ],
      [
        "ä¸Ģ",
        "ä¸ª"
      ],
      [
        "å¼",
        "ı"
      ],
      [
        "ç",
        "ģ"
      ],
      [
        "è",
        "ĭ"
      ],
      [
        "ä½",
        "ł"
      ],
      [
        "è§",
        "£"
      ],
      [
        "æŃ",
        "£"
      ],
      [
        "ç»",
        "ĵ"
      ],
      [
        "èĤ",
        "²"
      ],
      [
        "é",
        "¦"
      ],
      [
        "ç",
        "¼"
      ],
      [
        "è",
        "¢"
      ],
      [
        "éĢ",
        "ł"
      ],
      [
        "å¯",
        "¼"
      ],
      [
        "è",
        "£"
      ],
      [
        "éľ",
        "Ģ"
      ],
      [
        "è",
        "º"
      ],
      [
        "å",
        "ķ"
      ],
      [
        "å",
        "£"
      ],
      [
        "ç¤",
        "¾"
      ],
      [
        "æ",
        "º"
      ],
      [
        "äº",
        "Į"
      ],
      [
        "èī",
        "²"
      ],
      [
        "å",
        "ŀ"
      ],
      [
        "å",
        "ĸ"
      ],
      [
        "æ",
        "¡"
      ],
      [
        "ä»",
        "»"
      ],
      [
        "ç»",
        "Ł"
      ],
      [
        "ç",
        "Ī"
      ],
      [
        "æ±",
        "Ĥ"
      ],
      [
        "æ°",
        "Ķ"
      ],
      [
        "é¢",
        "ĺ"
      ],
      [
        "åħ",
        "·"
      ],
      [
        "è",
        "Ħ"
      ],
      [
        "åģ",
        "ļ"
      ],
      [
        "åį",
        "ģ"
      ],
      [
        "åĮ",
        "»"
      ],
      [
        "é¡",
        "¹"
      ],
      [
        "åĪ",
        "Ľ"
      ],
      [
        "çł",
        "Ķ"
      ],
      [
        "0",
        "0"
      ],
      [
        "çľ",
        "ĭ"
      ],
      [
        "åħ",
        "ĥ"
      ],
      [
        "éĩ",
        "Į"
      ],
      [
        "ç«",
        "ĭ"
      ],
      [
        "èº",
        "«"
      ],
      [
        "æł",
        "ĩ"
      ],
      [
        "ç",
        "¦"
      ],
      [
        "å¢",
        "ŀ"
      ],
      [
        "æĦ",
        "Ł"
      ],
      [
        "å¤",
        "Ħ"
      ],
      [
        "æĥ",
        "³"
      ],
      [
        "æķ",
        "Ī"
      ],
      [
        "ç½",
        "ĳ"
      ],
      [
        "æµ",
        "ģ"
      ],
      [
        "æį",
        "®"
      ],
      [
        "æİ",
        "¥"
      ],
      [
        "è¿",
        "Ĳ"
      ],
      [
        "çĶ",
        "±"
      ],
      [
        "ç²",
        "¾"
      ],
      [
        "éĹ",
        "®"
      ],
      [
        "æī",
        "ĭ"
      ],
      [
        "ç»",
        "Ħ"
      ],
      [
        "ä¹",
        "Ī"
      ],
      [
        "ä»",
        "¶"
      ],
      [
        "åİ",
        "»"
      ],
      [
        "æł",
        "·"
      ],
      [
        "éĹ",
        "¨"
      ],
      [
        "æł",
        "¡"
      ],
      [
        "è¢",
        "«"
      ],
      [
        "è",
        "Į"
      ],
      [
        "å·",
        "±"
      ],
      [
        "è½",
        "¦"
      ],
      [
        "æĸ",
        "Ļ"
      ],
      [
        "åĲ",
        "ĳ"
      ],
      [
        "ä¼",
        "ł"
      ],
      [
        "æ",
        "»"
      ],
      [
        "çĲ",
        "ĥ"
      ],
      [
        "çĻ",
        "½"
      ],
      [
        "é",
        "ª"
      ],
      [
        "åİ",
        "Ł"
      ],
      [
        "æĬĢ",
        "æľ¯"
      ],
      [
        "æĢ",
        "»"
      ],
      [
        "é¢",
        "Ĩ"
      ],
      [
        "åı",
        "Ĺ"
      ],
      [
        "è",
        "¥"
      ],
      [
        "å¤",
        "ĩ"
      ],
      [
        "æ²",
        "¡"
      ],
      [
        "å·",
        "²"
      ],
      [
        "åħ",
        "±"
      ],
      [
        "è·",
        "¯"
      ],
      [
        "èĩª",
        "å·±"
      ],
      [
        "çº",
        "§"
      ],
      [
        "äº",
        "¤"
      ],
      [
        "è¥",
        "¿"
      ],
      [
        "åķ",
        "Ĩ"
      ],
      [
        "å½",
        "¢"
      ],
      [
        "çİ",
        "¯"
      ],
      [
        "æµ",
        "·"
      ],
      [
        "æł",
        "¼"
      ],
      [
        "åŀ",
        "ĭ"
      ],
      [
        "å½",
        "±"
      ],
      [
        "ä¸",
        "¤"
      ],
      [
        "ç®¡",
        "çĲĨ"
      ],
      [
        "çŁ",
        "¥"
      ],
      [
        "é",
        "©"
      ],
      [
        "æ",
        "£"
      ],
      [
        "éĺ",
        "²"
      ],
      [
        "æľį",
        "åĬ¡"
      ],
      [
        "åį",
        "ķ"
      ],
      [
        "çľ",
        "ģ"
      ],
      [
        "åħ",
        "Ī"
      ],
      [
        "ç±",
        "»"
      ],
      [
        "åĽ½",
        "å®¶"
      ],
      [
        "è¿Ľ",
        "è¡Į"
      ],
      [
        "åı",
        "ĺ"
      ],
      [
        "é",
        "»"
      ],
      [
        "è°",
        "ĥ"
      ],
      [
        "æİ",
        "¨"
      ],
      [
        "å°",
        "ĳ"
      ],
      [
        "ä¼",
        "ĺ"
      ],
      [
        "ä¸",
        "ĩ"
      ],
      [
        "éĽ",
        "Ĩ"
      ],
      [
        "æĶ",
        "¹"
      ],
      [
        "å",
        "Ļ"
      ],
      [
        "éĺ",
        "Ł"
      ],
      [
        "èģ",
        "Ķ"
      ],
      [
        "è",
        "İ"
      ],
      [
        "æ·",
        "±"
      ],
      [
        "èĩ",
        "³"
      ],
      [
        "æ",
        "¢"
      ],
      [
        "å¹",
        "¿"
      ],
      [
        "è",
        "Ļ"
      ],
      [
        "ä¹",
        "ł"
      ],
      [
        "ä¸",
        "ĸ"
      ],
      [
        "ç¤",
        "º"
      ],
      [
        "æĶ",
        "¶"
      ],
      [
        "é",
        "Ĥ£"
      ],
      [
        "è¾",
        "ĥ"
      ],
      [
        "å¸",
        "Ī"
      ],
      [
        "äº§",
        "åĵģ"
      ],
      [
        "æ",
        "®"
      ],
      [
        "åı",
        "ª"
      ],
      [
        "å»º",
        "è®¾"
      ],
      [
        "æĮ",
        "ĩ"
      ],
      [
        "æŀ",
        "Ħ"
      ],
      [
        "çĸ",
        "Ĺ"
      ],
      [
        "æĬ",
        "¥"
      ],
      [
        "ç¤¾",
        "ä¼ļ"
      ],
      [
        "æī",
        "į"
      ],
      [
        "åŁ",
        "İ"
      ],
      [
        "é£",
        "Ł"
      ],
      [
        "æĸ",
        "½"
      ],
      [
        "æº",
        "Ĳ"
      ],
      [
        "æĶ",
        "¾"
      ],
      [
        "å®",
        "Į"
      ],
      [
        "åį",
        "Ĺ"
      ],
      [
        "ä¹",
        "¦"
      ],
      [
        "å±",
        "±"
      ],
      [
        "ä¸",
        "ľ"
      ],
      [
        "åı",
        "ĸ"
      ],
      [
        "åı",
        "£"
      ],
      [
        "ä¾",
        "Ľ"
      ],
      [
        "éĢ",
        "ī"
      ],
      [
        "çĥ",
        "Ń"
      ],
      [
        "èµ",
        "Ľ"
      ],
      [
        "è®",
        "¤"
      ],
      [
        "çº",
        "¿"
      ],
      [
        "åĻ",
        "¨"
      ],
      [
        "è¾",
        "¾"
      ],
      [
        "èĬ",
        "Ĥ"
      ],
      [
        "æ",
        "¨"
      ],
      [
        "æ³",
        "¨"
      ],
      [
        "èĲ",
        "¥"
      ],
      [
        "èĢ",
        "ģ"
      ],
      [
        "è®",
        "°"
      ],
      [
        "è®",
        "©"
      ],
      [
        "åĽ",
        "Ľ"
      ],
      [
        "å¸",
        "¦"
      ],
      [
        "ä»",
        "·"
      ],
      [
        "ç¥",
        "ŀ"
      ],
      [
        "è¿",
        "ĳ"
      ],
      [
        "æ",
        "¼"
      ],
      [
        "å®",
        "¹"
      ],
      [
        "ç",
        "Ĭ"
      ],
      [
        "èĢ",
        "ĥ"
      ],
      [
        "è£",
        "ħ"
      ],
      [
        "ç¡",
        "®"
      ],
      [
        "éĿ",
        "ŀ"
      ],
      [
        "æĪ",
        "ĺ"
      ],
      [
        "åĮ",
        "Ĺ"
      ],
      [
        "çķ",
        "Į"
      ],
      [
        "éĹ®",
        "é¢ĺ"
      ],
      [
        "åĩ",
        "Ĩ"
      ],
      [
        "æĿ",
        "¡"
      ],
      [
        "åĪ",
        "«"
      ],
      [
        "æĬ",
        "¤"
      ],
      [
        "å§",
        "Ķ"
      ],
      [
        "åħ",
        "ī"
      ],
      [
        "åı",
        "°"
      ],
      [
        "æķĻ",
        "èĤ²"
      ],
      [
        "è",
        "ħ"
      ],
      [
        "è¯",
        "ģ"
      ],
      [
        "å",
        "²"
      ],
      [
        "åĽ",
        "¢"
      ],
      [
        "ç",
        "ħ"
      ],
      [
        "åĨ",
        "³"
      ],
      [
        "æ¯",
        "ı"
      ],
      [
        "æµ",
        "İ"
      ],
      [
        "ç´",
        "ł"
      ],
      [
        "å¢",
        "ĥ"
      ],
      [
        "çĽ",
        "´"
      ],
      [
        "åĬ",
        "Ł"
      ],
      [
        "æĢ",
        "Ŀ"
      ],
      [
        "æķ",
        "´"
      ],
      [
        "æ²¡",
        "æľī"
      ],
      [
        "æī",
        "ĵ"
      ],
      [
        "æĺ",
        "ĵ"
      ],
      [
        "è",
        "±"
      ],
      [
        "å¥",
        "³"
      ],
      [
        "æŃ",
        "¥"
      ],
      [
        "æĶ",
        "¯"
      ],
      [
        "ä½",
        "İ"
      ],
      [
        "äº",
        "Ķ"
      ],
      [
        "ä¹",
        "ī"
      ],
      [
        "æĬ",
        "Ĭ"
      ],
      [
        "å",
        "Ķ"
      ],
      [
        "20",
        "1"
      ],
      [
        "ç©",
        "º"
      ],
      [
        "æ¸",
        "ħ"
      ],
      [
        "åĽ",
        "ŀ"
      ],
      [
        "ç©",
        "¶"
      ],
      [
        "åħ",
        "»"
      ],
      [
        "æĿ",
        "Ĳ"
      ],
      [
        "å±",
        "Ģ"
      ],
      [
        "èģ",
        "Į"
      ],
      [
        "çľ",
        "Ł"
      ],
      [
        "åĮ",
        "ħ"
      ],
      [
        "è§",
        "Ĥ"
      ],
      [
        "ä½¿",
        "çĶ¨"
      ],
      [
        "ç»",
        "Ļ"
      ],
      [
        "çĶŁ",
        "äº§"
      ],
      [
        "å",
        "ĭ"
      ],
      [
        "è´",
        "¹"
      ],
      [
        "æ¶",
        "Ī"
      ],
      [
        "è§",
        "Ĩ"
      ],
      [
        "æĬ",
        "ķ"
      ],
      [
        "å®",
        "ĥ"
      ],
      [
        "åĬ",
        "ŀ"
      ],
      [
        "å¼",
[...]
